{
  "version": "1.0",
  "truncation": null,
  "padding": null,
  "added_tokens": [
    {
      "id": 0,
      "content": "[UNK]",
      "single_word": false,
      "lstrip": false,
      "rstrip": false,
      "normalized": false,
      "special": true
    },
    {
      "id": 1,
      "content": "<eos>",
      "single_word": false,
      "lstrip": false,
      "rstrip": false,
      "normalized": false,
      "special": true
    }
  ],
  "normalizer": null,
  "pre_tokenizer": {
    "type": "Whitespace"
  },
  "post_processor": null,
  "decoder": null,
  "model": {
    "type": "BPE",
    "dropout": null,
    "unk_token": "[UNK]",
    "continuing_subword_prefix": null,
    "end_of_word_suffix": null,
    "fuse_unk": false,
    "vocab": {
      "[UNK]": 0,
      "<eos>": 1,
      "!": 2,
      "\"": 3,
      "#": 4,
      "$": 5,
      "%": 6,
      "&": 7,
      "'": 8,
      "(": 9,
      ")": 10,
      "*": 11,
      "+": 12,
      ",": 13,
      "-": 14,
      ".": 15,
      "/": 16,
      "0": 17,
      "1": 18,
      "2": 19,
      "3": 20,
      "4": 21,
      "5": 22,
      "6": 23,
      "7": 24,
      "8": 25,
      "9": 26,
      ":": 27,
      ";": 28,
      "<": 29,
      "=": 30,
      ">": 31,
      "?": 32,
      "@": 33,
      "A": 34,
      "B": 35,
      "C": 36,
      "D": 37,
      "E": 38,
      "F": 39,
      "G": 40,
      "H": 41,
      "I": 42,
      "J": 43,
      "K": 44,
      "L": 45,
      "M": 46,
      "N": 47,
      "O": 48,
      "P": 49,
      "Q": 50,
      "R": 51,
      "S": 52,
      "T": 53,
      "U": 54,
      "V": 55,
      "W": 56,
      "X": 57,
      "Y": 58,
      "Z": 59,
      "[": 60,
      "\\": 61,
      "]": 62,
      "_": 63,
      "`": 64,
      "a": 65,
      "b": 66,
      "c": 67,
      "d": 68,
      "e": 69,
      "f": 70,
      "g": 71,
      "h": 72,
      "i": 73,
      "j": 74,
      "k": 75,
      "l": 76,
      "m": 77,
      "n": 78,
      "o": 79,
      "p": 80,
      "q": 81,
      "r": 82,
      "s": 83,
      "t": 84,
      "u": 85,
      "v": 86,
      "w": 87,
      "x": 88,
      "y": 89,
      "z": 90,
      "{": 91,
      "|": 92,
      "}": 93,
      "~": 94,
      "": 95,
      "": 96,
      "": 97,
      "¡": 98,
      "¢": 99,
      "£": 100,
      "§": 101,
      "«": 102,
      "­": 103,
      "°": 104,
      "´": 105,
      "·": 106,
      "»": 107,
      "¿": 108,
      "É": 109,
      "ß": 110,
      "à": 111,
      "á": 112,
      "â": 113,
      "è": 114,
      "é": 115,
      "ê": 116,
      "í": 117,
      "ï": 118,
      "ñ": 119,
      "ó": 120,
      "ö": 121,
      "ú": 122,
      "ā": 123,
      "İ": 124,
      "œ": 125,
      "ɪ": 126,
      "ʏ": 127,
      "ʙ": 128,
      "ʜ": 129,
      "і": 130,
      "ғ": 131,
      "ᴀ": 132,
      "ᴄ": 133,
      "ᴅ": 134,
      "ᴇ": 135,
      "ᴏ": 136,
      "ᴛ": 137,
      "ᴜ": 138,
      "ᴡ": 139,
      "ᴢ": 140,
      "​": 141,
      "‌": 142,
      "‎": 143,
      "‐": 144,
      "‑": 145,
      "–": 146,
      "—": 147,
      "―": 148,
      "‘": 149,
      "’": 150,
      "‚": 151,
      "“": 152,
      "”": 153,
      "„": 154,
      "…": 155,
      "‪": 156,
      "€": 157,
      "™": 158,
      "−": 159,
      "─": 160,
      "❤": 161,
      "。": 162,
      "一": 163,
      "了": 164,
      "些": 165,
      "他": 166,
      "但": 167,
      "保": 168,
      "個": 169,
      "們": 170,
      "兒": 171,
      "兩": 172,
      "分": 173,
      "到": 174,
      "剛": 175,
      "又": 176,
      "和": 177,
      "在": 178,
      "天": 179,
      "奮": 180,
      "她": 181,
      "己": 182,
      "巴": 183,
      "度": 184,
      "很": 185,
      "恩": 186,
      "應": 187,
      "把": 188,
      "整": 189,
      "是": 190,
      "時": 191,
      "會": 192,
      "獨": 193,
      "玉": 194,
      "田": 195,
      "留": 196,
      "當": 197,
      "的": 198,
      "童": 199,
      "答": 200,
      "米": 201,
      "給": 202,
      "自": 203,
      "興": 204,
      "艾": 205,
      "莉": 206,
      "裡": 207,
      "這": 208,
      "過": 209,
      "難": 210,
      "高": 211,
      "": 212,
      "": 213,
      "️": 214,
      "﻿": 215,
      "，": 216,
      "�": 217,
      "🌴": 218,
      "🍌": 219,
      "🎓": 220,
      "🤩": 221,
      "he": 222,
      "an": 223,
      "the": 224,
      "ed": 225,
      "to": 226,
      "and": 227,
      "in": 228,
      "re": 229,
      "it": 230,
      "wa": 231,
      "ou": 232,
      "ha": 233,
      "The": 234,
      "er": 235,
      "was": 236,
      "ay": 237,
      "en": 238,
      "om": 239,
      "is": 240,
      "ar": 241,
      "on": 242,
      "im": 243,
      "sa": 244,
      "id": 245,
      "ll": 246,
      "le": 247,
      "ing": 248,
      "st": 249,
      "ot": 250,
      "am": 251,
      "or": 252,
      "ir": 253,
      "ne": 254,
      "They": 255,
      "pl": 256,
      "ig": 257,
      "at": 258,
      "He": 259,
      "be": 260,
      "il": 261,
      "lo": 262,
      "all": 263,
      "ri": 264,
      "ver": 265,
      "his": 266,
      "day": 267,
      "ut": 268,
      "play": 269,
      "said": 270,
      "Tim": 271,
      "ith": 272,
      "se": 273,
      "with": 274,
      "pp": 275,
      "her": 276,
      "ked": 277,
      "ow": 278,
      "ce": 279,
      "un": 280,
      "ke": 281,
      "She": 282,
      "hat": 283,
      "ld": 284,
      "th": 285,
      "big": 286,
      "end": 287,
      "you": 288,
      "very": 289,
      "ted": 290,
      "ve": 291,
      "li": 292,
      "ck": 293,
      "we": 294,
      "happ": 295,
      "of": 296,
      "riend": 297,
      "friend": 298,
      "up": 299,
      "ily": 300,
      "they": 301,
      "had": 302,
      "ad": 303,
      "not": 304,
      "wan": 305,
      "ge": 306,
      "itt": 307,
      "ome": 308,
      "ther": 309,
      "do": 310,
      "nd": 311,
      "bo": 312,
      "al": 313,
      "happy": 314,
      "ch": 315,
      "Lily": 316,
      "ent": 317,
      "for": 318,
      "that": 319,
      "saw": 320,
      "she": 321,
      "One": 322,
      "ould": 323,
      "mom": 324,
      "ittle": 325,
      "little": 326,
      "ime": 327,
      "as": 328,
      "so": 329,
      "Tom": 330,
      "time": 331,
      "ro": 332,
      "fe": 333,
      "nam": 334,
      ".\"": 335,
      "ound": 336,
      "es": 337,
      "there": 338,
      "oo": 339,
      "named": 340,
      "sm": 341,
      "were": 342,
      "It": 343,
      "wanted": 344,
      "but": 345,
      "friends": 346,
      "ved": 347,
      "!\"": 348,
      "ht": 349,
      "ird": 350,
      "sh": 351,
      "ry": 352,
      "are": 353,
      "bird": 354,
      "too": 355,
      "ra": 356,
      "On": 357,
      "my": 358,
      "out": 359,
      "ug": 360,
      "ake": 361,
      "ide": 362,
      "lp": 363,
      "ter": 364,
      "went": 365,
      "Once": 366,
      "car": 367,
      "loo": 368,
      "ue": 369,
      "help": 370,
      "upon": 371,
      "thing": 372,
      "ind": 373,
      "fun": 374,
      "toy": 375,
      "ill": 376,
      "ame": 377,
      "did": 378,
      "ly": 379,
      "gether": 380,
      "pe": 381,
      "ur": 382,
      "way": 383,
      "some": 384,
      "one": 385,
      "cat": 386,
      "me": 387,
      "together": 388,
      "ore": 389,
      "tre": 390,
      "ack": 391,
      "ag": 392,
      "new": 393,
      "can": 394,
      "dog": 395,
      "came": 396,
      "could": 397,
      "ood": 398,
      "their": 399,
      "ball": 400,
      "ic": 401,
      "par": 402,
      "gir": 403,
      "played": 404,
      "him": 405,
      "But": 406,
      "?\"": 407,
      "girl": 408,
      "go": 409,
      "fu": 410,
      "ho": 411,
      "man": 412,
      "them": 413,
      "hen": 414,
      "um": 415,
      "ax": 416,
      "sad": 417,
      "Sue": 418,
      "rom": 419,
      "boy": 420,
      "have": 421,
      "tree": 422,
      "Max": 423,
      "loved": 424,
      "looked": 425,
      "oug": 426,
      "hed": 427,
      "found": 428,
      "star": 429,
      "ab": 430,
      "side": 431,
      "other": 432,
      "back": 433,
      "Ben": 434,
      "la": 435,
      "lt": 436,
      "park": 437,
      "like": 438,
      "ain": 439,
      "Sam": 440,
      "ful": 441,
      "own": 442,
      "de": 443,
      "op": 444,
      "pr": 445,
      "et": 446,
      "ong": 447,
      "ight": 448,
      "no": 449,
      "pot": 450,
      "fa": 451,
      "ran": 452,
      "liked": 453,
      "would": 454,
      "sto": 455,
      "co": 456,
      "make": 457,
      "felt": 458,
      "You": 459,
      "see": 460,
      "now": 461,
      "want": 462,
      "asked": 463,
      "ouse": 464,
      "ard": 465,
      "ca": 466,
      "started": 467,
      "ought": 468,
      "iled": 469,
      "ice": 470,
      "good": 471,
      "small": 472,
      "wor": 473,
      "smiled": 474,
      "more": 475,
      "say": 476,
      "ried": 477,
      "ex": 478,
      "mad": 479,
      "scar": 480,
      "red": 481,
      "gr": 482,
      "Spot": 483,
      "put": 484,
      "king": 485,
      "find": 486,
      "Mom": 487,
      "ty": 488,
      "home": 489,
      "away": 490,
      "what": 491,
      "something": 492,
      "from": 493,
      "made": 494,
      "uc": 495,
      "thought": 496,
      "ened": 497,
      "sha": 498,
      "playing": 499,
      "ia": 500,
      "wal": 501,
      "every": 502,
      "ach": 503,
      "mu": 504,
      "arn": 505,
      "Mia": 506,
      "ile": 507,
      "box": 508,
      "again": 509,
      "house": 510,
      "laug": 511,
      "ret": 512,
      "down": 513,
      "use": 514,
      "took": 515,
      "scared": 516,
      "learn": 517,
      "ny": 518,
      "ure": 519,
      "toys": 520,
      "get": 521,
      "ss": 522,
      "will": 523,
      "got": 524,
      "dd": 525,
      "around": 526,
      "things": 527,
      "ish": 528,
      "your": 529,
      "oud": 530,
      "lived": 531,
      "el": 532,
      "ick": 533,
      "low": 534,
      "lot": 535,
      "ave": 536,
      "pec": 537,
      "then": 538,
      "sun": 539,
      "ep": 540,
      "So": 541,
      "der": 542,
      ",\"": 543,
      "when": 544,
      "ob": 545,
      "pped": 546,
      "ie": 547,
      "na": 548,
      "bot": 549,
      "ru": 550,
      "Luc": 551,
      "Lucy": 552,
      "if": 553,
      "te": 554,
      "ant": 555,
      "room": 556,
      "tried": 557,
      "know": 558,
      "says": 559,
      "ump": 560,
      "ited": 561,
      "who": 562,
      "any": 563,
      "many": 564,
      "pic": 565,
      "about": 566,
      "us": 567,
      "care": 568,
      "pret": 569,
      "dec": 570,
      "We": 571,
      "by": 572,
      "knew": 573,
      "ous": 574,
      "ise": 575,
      "ally": 576,
      "pu": 577,
      "ist": 578,
      "ways": 579,
      "qu": 580,
      "learned": 581,
      "ate": 582,
      "water": 583,
      "ank": 584,
      "And": 585,
      "fter": 586,
      "became": 587,
      "best": 588,
      "ive": 589,
      "ust": 590,
      "gre": 591,
      "long": 592,
      "nex": 593,
      "bl": 594,
      "exc": 595,
      "cause": 596,
      "outside": 597,
      "laughed": 598,
      "mo": 599,
      "look": 600,
      "always": 601,
      "here": 602,
      "decid": 603,
      "show": 604,
      "eat": 605,
      "ite": 606,
      "decided": 607,
      "because": 608,
      "fore": 609,
      "cl": 610,
      "into": 611,
      "po": 612,
      "cle": 613,
      "ang": 614,
      "Let": 615,
      "jump": 616,
      "both": 617,
      "Then": 618,
      "run": 619,
      "hug": 620,
      "ers": 621,
      "dad": 622,
      "ma": 623,
      "ok": 624,
      "An": 625,
      "fast": 626,
      "sur": 627,
      "clo": 628,
      "When": 629,
      "this": 630,
      "excited": 631,
      "nice": 632,
      "feel": 633,
      "Yes": 634,
      "sor": 635,
      "wh": 636,
      "bb": 637,
      "pa": 638,
      "old": 639,
      "bu": 640,
      "ink": 641,
      "told": 642,
      "sk": 643,
      "come": 644,
      "Bob": 645,
      "br": 646,
      "inside": 647,
      "fish": 648,
      "surpr": 649,
      "His": 650,
      "iny": 651,
      "ook": 652,
      "pretty": 653,
      "fly": 654,
      "ara": 655,
      "gave": 656,
      "take": 657,
      "ta": 658,
      "our": 659,
      "let": 660,
      "each": 661,
      "jo": 662,
      "much": 663,
      "its": 664,
      "how": 665,
      "Anna": 666,
      "lew": 667,
      "under": 668,
      "imal": 669,
      "animal": 670,
      "Amy": 671,
      "udd": 672,
      "need": 673,
      "than": 674,
      "ven": 675,
      "able": 676,
      "ac": 677,
      "flow": 678,
      "As": 679,
      "har": 680,
      "sorry": 681,
      "sw": 682,
      "ell": 683,
      "uck": 684,
      "Can": 685,
      "Th": 686,
      "Sara": 687,
      "ged": 688,
      "ised": 689,
      "rock": 690,
      "dre": 691,
      "Thank": 692,
      "walked": 693,
      "urt": 694,
      "bear": 695,
      "read": 696,
      "hand": 697,
      "lea": 698,
      "urn": 699,
      "kind": 700,
      "rain": 701,
      "try": 702,
      "just": 703,
      "happened": 704,
      "str": 705,
      "Her": 706,
      "list": 707,
      "food": 708,
      "bet": 709,
      "didn": 710,
      "igh": 711,
      "fi": 712,
      "animals": 713,
      "war": 714,
      "spec": 715,
      "In": 716,
      "wat": 717,
      "near": 718,
      "sky": 719,
      "ine": 720,
      "cre": 721,
      "ving": 722,
      "bug": 723,
      "From": 724,
      "idea": 725,
      "better": 726,
      "heard": 727,
      "never": 728,
      "ket": 729,
      "che": 730,
      "tw": 731,
      "bro": 732,
      "bed": 733,
      "pla": 734,
      "ff": 735,
      "tal": 736,
      "love": 737,
      "nt": 738,
      "sp": 739,
      "ber": 740,
      "careful": 741,
      "share": 742,
      "tow": 743,
      "col": 744,
      "ial": 745,
      "flew": 746,
      "anymore": 747,
      "com": 748,
      "special": 749,
      "ion": 750,
      "lots": 751,
      "lf": 752,
      "per": 753,
      "where": 754,
      "don": 755,
      "wind": 756,
      "give": 757,
      "book": 758,
      "Every": 759,
      "safe": 760,
      "lad": 761,
      "clean": 762,
      "That": 763,
      "ground": 764,
      "even": 765,
      "ople": 766,
      "mag": 767,
      "over": 768,
      "cake": 769,
      "ass": 770,
      "shiny": 771,
      "udden": 772,
      "turn": 773,
      "fam": 774,
      "bad": 775,
      "after": 776,
      "Do": 777,
      "uddenly": 778,
      "people": 779,
      "proud": 780,
      "rabb": 781,
      "ever": 782,
      "door": 783,
      "surprised": 784,
      "high": 785,
      "hurt": 786,
      "pected": 787,
      "gard": 788,
      "garden": 789,
      "opened": 790,
      "picked": 791,
      "loud": 792,
      "clim": 793,
      "far": 794,
      "nexpected": 795,
      "unexpected": 796,
      "fo": 797,
      "bea": 798,
      "hard": 799,
      "app": 800,
      "What": 801,
      "place": 802,
      "unt": 803,
      "color": 804,
      "thanked": 805,
      "blue": 806,
      "still": 807,
      "ear": 808,
      "hugged": 809,
      "ct": 810,
      "call": 811,
      "No": 812,
      "off": 813,
      "mor": 814,
      "ough": 815,
      "magic": 816,
      "ummy": 817,
      "Wh": 818,
      "jumped": 819,
      "Jo": 820,
      "should": 821,
      "family": 822,
      "kid": 823,
      "walk": 824,
      "ool": 825,
      "smile": 826,
      "squ": 827,
      "rog": 828,
      "cha": 829,
      "imp": 830,
      "uff": 831,
      "rel": 832,
      "great": 833,
      "Suddenly": 834,
      "bra": 835,
      "stay": 836,
      "strong": 837,
      "ark": 838,
      "forest": 839,
      "tru": 840,
      "dan": 841,
      "itty": 842,
      "ture": 843,
      "sl": 844,
      "ble": 845,
      "frog": 846,
      "until": 847,
      "Sally": 848,
      "beaut": 849,
      "stick": 850,
      "dy": 851,
      "boat": 852,
      "ort": 853,
      "ning": 854,
      "ess": 855,
      "next": 856,
      "lease": 857,
      "This": 858,
      "Kitty": 859,
      "After": 860,
      "pt": 861,
      "happily": 862,
      "listen": 863,
      "ched": 864,
      "kids": 865,
      "beauti": 866,
      "beautiful": 867,
      "sed": 868,
      "helped": 869,
      "yes": 870,
      "showed": 871,
      "while": 872,
      "unny": 873,
      "story": 874,
      "town": 875,
      "cu": 876,
      "keep": 877,
      "At": 878,
      "picture": 879,
      "oft": 880,
      "ree": 881,
      "ste": 882,
      "lly": 883,
      "being": 884,
      "ak": 885,
      "met": 886,
      "everyone": 887,
      "ip": 888,
      "raw": 889,
      "called": 890,
      "les": 891,
      "stopped": 892,
      "game": 893,
      "Now": 894,
      "Fin": 895,
      "sing": 896,
      "angry": 897,
      "joy": 898,
      "uffy": 899,
      "open": 900,
      "ane": 901,
      "truck": 902,
      "luffy": 903,
      "soft": 904,
      "yummy": 905,
      "cry": 906,
      "lost": 907,
      "Jack": 908,
      "vent": 909,
      "warm": 910,
      "ild": 911,
      "ask": 912,
      "brave": 913,
      "work": 914,
      "mouse": 915,
      "ond": 916,
      "won": 917,
      "ished": 918,
      "watch": 919,
      "couldn": 920,
      "doll": 921,
      "face": 922,
      "leave": 923,
      "flower": 924,
      "also": 925,
      "fell": 926,
      "flowers": 927,
      "green": 928,
      "mon": 929,
      "llo": 930,
      "two": 931,
      "laugh": 932,
      "less": 933,
      "lock": 934,
      "gan": 935,
      "Look": 936,
      "noise": 937,
      "irst": 938,
      "owl": 939,
      "right": 940,
      "store": 941,
      "cream": 942,
      "soon": 943,
      "self": 944,
      "top": 945,
      "slide": 946,
      "ser": 947,
      "hole": 948,
      "Hi": 949,
      "Fluffy": 950,
      "iz": 951,
      "sat": 952,
      "before": 953,
      "irrel": 954,
      "key": 955,
      "ung": 956,
      "ired": 957,
      "illy": 958,
      "hear": 959,
      "race": 960,
      "table": 961,
      "kept": 962,
      "yard": 963,
      "nodd": 964,
      "squirrel": 965,
      "tor": 966,
      "nodded": 967,
      "used": 968,
      "swing": 969,
      "expl": 970,
      "birds": 971,
      "vo": 972,
      "rabbit": 973,
      "having": 974,
      "pain": 975,
      "hands": 976,
      "mber": 977,
      "set": 978,
      "going": 979,
      "tr": 980,
      "looking": 981,
      "Don": 982,
      "funny": 983,
      "rest": 984,
      "head": 985,
      "aybe": 986,
      "uch": 987,
      "catch": 988,
      "ught": 989,
      "fin": 990,
      "shed": 991,
      "yell": 992,
      "think": 993,
      "leep": 994,
      "fix": 995,
      "lled": 996,
      "sn": 997,
      "ting": 998,
      "tired": 999,
      "bunny": 1000,
      "ama": 1001,
      "wr": 1002,
      "ries": 1003,
      "night": 1004,
      "thr": 1005,
      "kit": 1006,
      "tell": 1007,
      "sound": 1008,
      "member": 1009,
      "has": 1010,
      "mean": 1011,
      "cook": 1012,
      "cold": 1013,
      "Why": 1014,
      "pond": 1015,
      "sunny": 1016,
      "others": 1017,
      "talk": 1018,
      "flo": 1019,
      "chen": 1020,
      "ds": 1021,
      "kitchen": 1022,
      "wait": 1023,
      "cut": 1024,
      "pie": 1025,
      "Dad": 1026,
      "cou": 1027,
      "dif": 1028,
      "first": 1029,
      "Hello": 1030,
      "mommy": 1031,
      "eyes": 1032,
      "import": 1033,
      "age": 1034,
      "fav": 1035,
      "ies": 1036,
      "swe": 1037,
      "con": 1038,
      "ath": 1039,
      "remember": 1040,
      "climb": 1041,
      "party": 1042,
      "ft": 1043,
      "ious": 1044,
      "sand": 1045,
      "bar": 1046,
      "orn": 1047,
      "move": 1048,
      "llow": 1049,
      "curi": 1050,
      "important": 1051,
      "light": 1052,
      "duck": 1053,
      "moral": 1054,
      "shared": 1055,
      "zy": 1056,
      "ster": 1057,
      "okay": 1058,
      "dress": 1059,
      "advent": 1060,
      "ash": 1061,
      "worked": 1062,
      "making": 1063,
      "enjoy": 1064,
      "bright": 1065,
      "times": 1066,
      "curious": 1067,
      "fru": 1068,
      "agre": 1069,
      "Mommy": 1070,
      "Joh": 1071,
      "tall": 1072,
      "dir": 1073,
      "hone": 1074,
      "hid": 1075,
      "John": 1076,
      "favor": 1077,
      "dis": 1078,
      "Wow": 1079,
      "sleep": 1080,
      "favorite": 1081,
      "began": 1082,
      "shar": 1083,
      "Bo": 1084,
      "bag": 1085,
      "fire": 1086,
      "hill": 1087,
      "agreed": 1088,
      "draw": 1089,
      "sho": 1090,
      "ken": 1091,
      "bre": 1092,
      "cla": 1093,
      "que": 1094,
      "hind": 1095,
      "watched": 1096,
      "follow": 1097,
      "mess": 1098,
      "zed": 1099,
      "Mr": 1100,
      "pick": 1101,
      "please": 1102,
      "block": 1103,
      "stop": 1104,
      "hung": 1105,
      "behind": 1106,
      "gu": 1107,
      "surprise": 1108,
      "paper": 1109,
      "hot": 1110,
      "Maybe": 1111,
      "worry": 1112,
      "dark": 1113,
      "dro": 1114,
      "Bobo": 1115,
      "trees": 1116,
      "voice": 1117,
      "grass": 1118,
      "walking": 1119,
      "air": 1120,
      "tail": 1121,
      "fere": 1122,
      "lion": 1123,
      "floor": 1124,
      "farm": 1125,
      "differe": 1126,
      "song": 1127,
      "stand": 1128,
      "feeling": 1129,
      "butter": 1130,
      "led": 1131,
      "wel": 1132,
      "ready": 1133,
      "ied": 1134,
      "colors": 1135,
      "lady": 1136,
      "Jane": 1137,
      "ange": 1138,
      "Timmy": 1139,
      "isy": 1140,
      "leaves": 1141,
      "closer": 1142,
      "ign": 1143,
      "cars": 1144,
      "turned": 1145,
      "needed": 1146,
      "wood": 1147,
      "cried": 1148,
      "tri": 1149,
      "different": 1150,
      "piece": 1151,
      "adventure": 1152,
      "does": 1153,
      "prin": 1154,
      "hair": 1155,
      "hungry": 1156,
      "cked": 1157,
      "tra": 1158,
      "bye": 1159,
      "yellow": 1160,
      "sweet": 1161,
      "ced": 1162,
      "full": 1163,
      "touch": 1164,
      "wet": 1165,
      "mar": 1166,
      "friendly": 1167,
      "mis": 1168,
      "ike": 1169,
      "cr": 1170,
      "ger": 1171,
      "din": 1172,
      "broken": 1173,
      "mou": 1174,
      "cra": 1175,
      "All": 1176,
      "land": 1177,
      "ient": 1178,
      "sit": 1179,
      "med": 1180,
      "prom": 1181,
      "another": 1182,
      "pretend": 1183,
      "dance": 1184,
      "reac": 1185,
      "climbed": 1186,
      "listened": 1187,
      "plan": 1188,
      "tle": 1189,
      "pen": 1190,
      "ater": 1191,
      "fl": 1192,
      "running": 1193,
      "To": 1194,
      "only": 1195,
      "river": 1196,
      "gone": 1197,
      "swim": 1198,
      "ila": 1199,
      "train": 1200,
      "andma": 1201,
      "smell": 1202,
      "thank": 1203,
      "There": 1204,
      "close": 1205,
      "ple": 1206,
      "gg": 1207,
      "Lila": 1208,
      "pet": 1209,
      "hold": 1210,
      "aby": 1211,
      "chair": 1212,
      "blocks": 1213,
      "wonder": 1214,
      "Everyone": 1215,
      "av": 1216,
      "fight": 1217,
      "reached": 1218,
      "lie": 1219,
      "wall": 1220,
      "bor": 1221,
      "rag": 1222,
      "ner": 1223,
      "helping": 1224,
      "ary": 1225,
      "kay": 1226,
      "slow": 1227,
      "ze": 1228,
      "cool": 1229,
      "glad": 1230,
      "hop": 1231,
      "goodbye": 1232,
      "been": 1233,
      "wear": 1234,
      "fair": 1235,
      "pushed": 1236,
      "ins": 1237,
      "ered": 1238,
      "oon": 1239,
      "iced": 1240,
      "dr": 1241,
      "bit": 1242,
      "Just": 1243,
      "sees": 1244,
      "hide": 1245,
      "coming": 1246,
      "must": 1247,
      "moment": 1248,
      "window": 1249,
      "fr": 1250,
      "balloon": 1251,
      "repl": 1252,
      "done": 1253,
      "snow": 1254,
      "explore": 1255,
      "bow": 1256,
      "Soon": 1257,
      "wished": 1258,
      "baby": 1259,
      "stuck": 1260,
      "buy": 1261,
      "real": 1262,
      "fall": 1263,
      "might": 1264,
      "name": 1265,
      "apple": 1266,
      "trying": 1267,
      "quick": 1268,
      "scary": 1269,
      "looks": 1270,
      "dream": 1271,
      "doing": 1272,
      "aisy": 1273,
      "ings": 1274,
      "dirty": 1275,
      "build": 1276,
      "outed": 1277,
      "ppy": 1278,
      "cket": 1279,
      "held": 1280,
      "Be": 1281,
      "ames": 1282,
      "spo": 1283,
      "arm": 1284,
      "je": 1285,
      "wise": 1286,
      "cast": 1287,
      "butterfly": 1288,
      "swa": 1289,
      "left": 1290,
      "deli": 1291,
      "shouted": 1292,
      "replied": 1293,
      "sure": 1294,
      "wo": 1295,
      "win": 1296,
      "em": 1297,
      "reach": 1298,
      "why": 1299,
      "bran": 1300,
      "through": 1301,
      "tiny": 1302,
      "wag": 1303,
      "mi": 1304,
      "mat": 1305,
      "three": 1306,
      "treat": 1307,
      "grow": 1308,
      "pulled": 1309,
      "brother": 1310,
      "woods": 1311,
      "art": 1312,
      "fill": 1313,
      "ton": 1314,
      "bus": 1315,
      "seen": 1316,
      "cup": 1317,
      "pink": 1318,
      "plant": 1319,
      "clapped": 1320,
      "ield": 1321,
      "sometimes": 1322,
      "andy": 1323,
      "year": 1324,
      "cloud": 1325,
      "swam": 1326,
      "grabb": 1327,
      "Okay": 1328,
      "Inside": 1329,
      "job": 1330,
      "colorful": 1331,
      "nest": 1332,
      "remembered": 1333,
      "bigger": 1334,
      "mouth": 1335,
      "join": 1336,
      "lesson": 1337,
      "Oh": 1338,
      "waved": 1339,
      "grabbed": 1340,
      "stayed": 1341,
      "Daisy": 1342,
      "uddy": 1343,
      "rot": 1344,
      "Buddy": 1345,
      "clothe": 1346,
      "nap": 1347,
      "oup": 1348,
      "waited": 1349,
      "clothes": 1350,
      "heav": 1351,
      "quickly": 1352,
      "pare": 1353,
      "broke": 1354,
      "games": 1355,
      "gent": 1356,
      "vis": 1357,
      "blew": 1358,
      "Finally": 1359,
      "gl": 1360,
      "ucky": 1361,
      "erous": 1362,
      "While": 1363,
      "row": 1364,
      "zz": 1365,
      "noticed": 1366,
      "enjoyed": 1367,
      "tast": 1368,
      "pur": 1369,
      "thre": 1370,
      "likes": 1371,
      "paint": 1372,
      "sea": 1373,
      "pictures": 1374,
      "books": 1375,
      "dry": 1376,
      "heavy": 1377,
      "gif": 1378,
      "alone": 1379,
      "mus": 1380,
      "asure": 1381,
      "anything": 1382,
      "spot": 1383,
      "live": 1384,
      "hopped": 1385,
      "turns": 1386,
      "Tommy": 1387,
      "world": 1388,
      "castle": 1389,
      "cont": 1390,
      "pat": 1391,
      "Sarah": 1392,
      "mix": 1393,
      "bike": 1394,
      "tight": 1395,
      "forgot": 1396,
      "everywhere": 1397,
      "Joe": 1398,
      "tower": 1399,
      "round": 1400,
      "threw": 1401,
      "whis": 1402,
      "himself": 1403,
      "Please": 1404,
      "followed": 1405,
      "ju": 1406,
      "ride": 1407,
      "board": 1408,
      "ather": 1409,
      "fruit": 1410,
      "\".": 1411,
      "white": 1412,
      "sec": 1413,
      "wrong": 1414,
      "makes": 1415,
      "stran": 1416,
      "Em": 1417,
      "break": 1418,
      "pre": 1419,
      "black": 1420,
      "parent": 1421,
      "thy": 1422,
      "bee": 1423,
      "music": 1424,
      "deep": 1425,
      "cess": 1426,
      "Re": 1427,
      "stone": 1428,
      "olly": 1429,
      "Billy": 1430,
      "ation": 1431,
      "whe": 1432,
      "oun": 1433,
      "stre": 1434,
      "pill": 1435,
      "wi": 1436,
      "lar": 1437,
      "iet": 1438,
      "danced": 1439,
      "ap": 1440,
      "ali": 1441,
      "leaf": 1442,
      "wants": 1443,
      "quiet": 1444,
      "ba": 1445,
      "monster": 1446,
      "understand": 1447,
      "bowl": 1448,
      "fur": 1449,
      "Come": 1450,
      "ub": 1451,
      "talked": 1452,
      "pes": 1453,
      "itten": 1454,
      "faster": 1455,
      "fully": 1456,
      "cookies": 1457,
      "pro": 1458,
      "brought": 1459,
      "leg": 1460,
      "ross": 1461,
      "sc": 1462,
      "ph": 1463,
      "cy": 1464,
      "mum": 1465,
      "sign": 1466,
      "ued": 1467,
      "sis": 1468,
      "well": 1469,
      "ance": 1470,
      "ts": 1471,
      "smart": 1472,
      "rocks": 1473,
      "someone": 1474,
      "poin": 1475,
      "sharing": 1476,
      "cover": 1477,
      "reali": 1478,
      "fox": 1479,
      "button": 1480,
      "happen": 1481,
      "branch": 1482,
      "finished": 1483,
      "really": 1484,
      "oom": 1485,
      "hit": 1486,
      "ence": 1487,
      "orange": 1488,
      "Gr": 1489,
      "itch": 1490,
      "sister": 1491,
      "corn": 1492,
      "dinner": 1493,
      "zing": 1494,
      "gi": 1495,
      "flying": 1496,
      "ele": 1497,
      "most": 1498,
      "contin": 1499,
      "fect": 1500,
      "worried": 1501,
      "sy": 1502,
      "beach": 1503,
      "af": 1504,
      "plane": 1505,
      "dang": 1506,
      "wish": 1507,
      "secret": 1508,
      "stu": 1509,
      "dren": 1510,
      "chil": 1511,
      "free": 1512,
      "spe": 1513,
      "today": 1514,
      "perfect": 1515,
      "min": 1516,
      "shin": 1517,
      "everything": 1518,
      "silly": 1519,
      "children": 1520,
      "filled": 1521,
      "field": 1522,
      "else": 1523,
      "oth": 1524,
      "stead": 1525,
      "smiles": 1526,
      "OK": 1527,
      "visit": 1528,
      "pow": 1529,
      "sang": 1530,
      "snack": 1531,
      "pull": 1532,
      "asks": 1533,
      "parents": 1534,
      "pudd": 1535,
      "eating": 1536,
      "pieces": 1537,
      "realized": 1538,
      "promised": 1539,
      "ctor": 1540,
      "pig": 1541,
      "spr": 1542,
      "pers": 1543,
      "continued": 1544,
      "bite": 1545,
      "ses": 1546,
      "carefully": 1547,
      "itting": 1548,
      "ons": 1549,
      "hig": 1550,
      "gra": 1551,
      "jar": 1552,
      "phone": 1553,
      "pper": 1554,
      "cow": 1555,
      "ated": 1556,
      "words": 1557,
      "drag": 1558,
      "moved": 1559,
      "mud": 1560,
      "rolled": 1561,
      "wave": 1562,
      "amp": 1563,
      "appear": 1564,
      "crying": 1565,
      "Le": 1566,
      "enough": 1567,
      "blan": 1568,
      "blanket": 1569,
      "Jim": 1570,
      "bath": 1571,
      "oney": 1572,
      "soup": 1573,
      "dri": 1574,
      "mother": 1575,
      "sail": 1576,
      "push": 1577,
      "imi": 1578,
      "Mimi": 1579,
      "My": 1580,
      "Jen": 1581,
      "drink": 1582,
      "Some": 1583,
      "boun": 1584,
      "snake": 1585,
      "pass": 1586,
      "throw": 1587,
      "roll": 1588,
      "fairy": 1589,
      "crab": 1590,
      "laughing": 1591,
      "amazing": 1592,
      "ote": 1593,
      "getting": 1594,
      "purple": 1595,
      "without": 1596,
      "bottle": 1597,
      "grandma": 1598,
      "gift": 1599,
      "mail": 1600,
      "spl": 1601,
      "money": 1602,
      "barked": 1603,
      "wagged": 1604,
      "monkey": 1605,
      "past": 1606,
      "welcome": 1607,
      "sel": 1608,
      "chool": 1609,
      "brown": 1610,
      "doctor": 1611,
      "ises": 1612,
      "closed": 1613,
      "school": 1614,
      "pping": 1615,
      "cious": 1616,
      "morning": 1617,
      "owner": 1618,
      "candy": 1619,
      "lone": 1620,
      "higher": 1621,
      "sitting": 1622,
      ".”": 1623,
      "stoo": 1624,
      "treasure": 1625,
      "hes": 1626,
      "dangerous": 1627,
      "!”": 1628,
      "net": 1629,
      "lonely": 1630,
      "shop": 1631,
      "living": 1632,
      "icy": 1633,
      "apples": 1634,
      "count": 1635,
      "strange": 1636,
      "comfor": 1637,
      "Bl": 1638,
      "smo": 1639,
      "road": 1640,
      "shining": 1641,
      "egg": 1642,
      "ants": 1643,
      "paw": 1644,
      "una": 1645,
      "creat": 1646,
      "cks": 1647,
      "shoes": 1648,
      "ible": 1649,
      "talking": 1650,
      "althy": 1651,
      "caught": 1652,
      "Ch": 1653,
      "stood": 1654,
      "lake": 1655,
      "letter": 1656,
      "runs": 1657,
      "coat": 1658,
      "bas": 1659,
      "wings": 1660,
      "chee": 1661,
      "cho": 1662,
      "fan": 1663,
      "va": 1664,
      "nee": 1665,
      "Fred": 1666,
      "years": 1667,
      "basket": 1668,
      "dragon": 1669,
      "days": 1670,
      "belie": 1671,
      "mine": 1672,
      "thinks": 1673,
      "delicious": 1674,
      "puddle": 1675,
      "nose": 1676,
      "igg": 1677,
      "farmer": 1678,
      "same": 1679,
      "Emma": 1680,
      "teddy": 1681,
      "mind": 1682,
      "unch": 1683,
      "sear": 1684,
      "ches": 1685,
      "Whis": 1686,
      "Molly": 1687,
      "Good": 1688,
      "fit": 1689,
      "bring": 1690,
      "gentle": 1691,
      "wards": 1692,
      "start": 1693,
      "Together": 1694,
      "finally": 1695,
      "cray": 1696,
      "kite": 1697,
      "scream": 1698,
      "pol": 1699,
      "shell": 1700,
      "vill": 1701,
      "singing": 1702,
      "hor": 1703,
      "tasty": 1704,
      "idge": 1705,
      "ace": 1706,
      "ben": 1707,
      "trou": 1708,
      "herself": 1709,
      "hoped": 1710,
      "wore": 1711,
      "answ": 1712,
      "arri": 1713,
      "swings": 1714,
      "Blue": 1715,
      "uni": 1716,
      "kis": 1717,
      "belong": 1718,
      "pack": 1719,
      "kers": 1720,
      "bush": 1721,
      "ng": 1722,
      "kn": 1723,
      "woke": 1724,
      "carrot": 1725,
      "ming": 1726,
      "Bell": 1727,
      "ughty": 1728,
      "teach": 1729,
      "eleph": 1730,
      "naughty": 1731,
      "dropped": 1732,
      "hu": 1733,
      "Whiskers": 1734,
      "teac": 1735,
      "coll": 1736,
      "pile": 1737,
      "hiding": 1738,
      "cour": 1739,
      "Their": 1740,
      "Remy": 1741,
      "di": 1742,
      "Bella": 1743,
      "bell": 1744,
      "touc": 1745,
      "isa": 1746,
      "val": 1747,
      "kno": 1748,
      "su": 1749,
      "puppy": 1750,
      "llie": 1751,
      "If": 1752,
      "lunch": 1753,
      "twins": 1754,
      "sack": 1755,
      "ment": 1756,
      "rope": 1757,
      "mach": 1758,
      "Mark": 1759,
      "Lisa": 1760,
      "course": 1761,
      "Grandma": 1762,
      "shapes": 1763,
      "cheered": 1764,
      "grew": 1765,
      "lay": 1766,
      "village": 1767,
      "fused": 1768,
      "shelf": 1769,
      "erful": 1770,
      "irth": 1771,
      "spin": 1772,
      "juice": 1773,
      "word": 1774,
      "rainbow": 1775,
      "part": 1776,
      "irthday": 1777,
      "shook": 1778,
      "bench": 1779,
      "fence": 1780,
      "street": 1781,
      "cute": 1782,
      "nut": 1783,
      "Jill": 1784,
      "cal": 1785,
      "cheese": 1786,
      "touched": 1787,
      "balls": 1788,
      "orm": 1789,
      "shad": 1790,
      "wand": 1791,
      "seed": 1792,
      "tea": 1793,
      "eas": 1794,
      "teacher": 1795,
      "des": 1796,
      "loom": 1797,
      "arrived": 1798,
      "band": 1799,
      "wra": 1800,
      "forever": 1801,
      "carry": 1802,
      "few": 1803,
      "lla": 1804,
      "bugs": 1805,
      "sounds": 1806,
      "sli": 1807,
      "Go": 1808,
      "blem": 1809,
      "problem": 1810,
      "cing": 1811,
      "num": 1812,
      "promise": 1813,
      "ilk": 1814,
      "ier": 1815,
      "birthday": 1816,
      "wonderful": 1817,
      "dolls": 1818,
      "How": 1819,
      "stor": 1820,
      "busy": 1821,
      "shy": 1822,
      "irp": 1823,
      "feels": 1824,
      "bread": 1825,
      "ade": 1826,
      "neck": 1827,
      "milk": 1828,
      "ian": 1829,
      "robot": 1830,
      "vel": 1831,
      "ntain": 1832,
      "pop": 1833,
      "heart": 1834,
      "believe": 1835,
      "irt": 1836,
      "cave": 1837,
      "pocket": 1838,
      "shake": 1839,
      "seek": 1840,
      "helpful": 1841,
      "storm": 1842,
      "slowly": 1843,
      "Pe": 1844,
      "umpy": 1845,
      "patient": 1846,
      "berries": 1847,
      "appeared": 1848,
      "ugly": 1849,
      "driver": 1850,
      "holding": 1851,
      "towards": 1852,
      "elephant": 1853,
      "upset": 1854,
      "ring": 1855,
      "turt": 1856,
      "kitten": 1857,
      "stories": 1858,
      "suc": 1859,
      "late": 1860,
      "splash": 1861,
      "Sure": 1862,
      "honey": 1863,
      "zoom": 1864,
      "cir": 1865,
      "noises": 1866,
      "sharp": 1867,
      "Later": 1868,
      "spark": 1869,
      "gray": 1870,
      "dirt": 1871,
      "Leo": 1872,
      "dist": 1873,
      "seat": 1874,
      "Ann": 1875,
      "ucket": 1876,
      "bucket": 1877,
      "shr": 1878,
      "meet": 1879,
      "young": 1880,
      "note": 1881,
      "uce": 1882,
      "amazed": 1883,
      "turtle": 1884,
      "spoon": 1885,
      "treats": 1886,
      "spid": 1887,
      "ull": 1888,
      "magical": 1889,
      "wash": 1890,
      "shine": 1891,
      "ped": 1892,
      "era": 1893,
      "glow": 1894,
      "Mama": 1895,
      "fold": 1896,
      "lemon": 1897,
      "trip": 1898,
      "comfortable": 1899,
      "gen": 1900,
      "mist": 1901,
      "quest": 1902,
      "hang": 1903,
      "jour": 1904,
      "horse": 1905,
      "loth": 1906,
      "add": 1907,
      "cloth": 1908,
      "puzz": 1909,
      "Daddy": 1910,
      "organ": 1911,
      "princess": 1912,
      "roar": 1913,
      "cookie": 1914,
      "picy": 1915,
      "drive": 1916,
      "oose": 1917,
      "hugs": 1918,
      "wild": 1919,
      "taking": 1920,
      "wheel": 1921,
      "bled": 1922,
      "organiz": 1923,
      "miss": 1924,
      "sug": 1925,
      "iling": 1926,
      "rich": 1927,
      "Of": 1928,
      "string": 1929,
      "instead": 1930,
      "ti": 1931,
      "rude": 1932,
      "lucky": 1933,
      "drove": 1934,
      "ero": 1935,
      "Bu": 1936,
      "huge": 1937,
      "mer": 1938,
      "coin": 1939,
      "lice": 1940,
      "fighting": 1941,
      "stars": 1942,
      "spicy": 1943,
      "bone": 1944,
      "Mary": 1945,
      "craw": 1946,
      "Hey": 1947,
      "tie": 1948,
      "den": 1949,
      "cor": 1950,
      "ek": 1951,
      "bubb": 1952,
      "last": 1953,
      "wide": 1954,
      "card": 1955,
      "Cat": 1956,
      "life": 1957,
      "Ro": 1958,
      "whistle": 1959,
      "path": 1960,
      "ney": 1961,
      "cannot": 1962,
      "sick": 1963,
      "bat": 1964,
      "comes": 1965,
      "rush": 1966,
      "resting": 1967,
      "circle": 1968,
      "spider": 1969,
      "foot": 1970,
      "inv": 1971,
      "songs": 1972,
      "snowman": 1973,
      "change": 1974,
      "Luna": 1975,
      "pillow": 1976,
      "fixed": 1977,
      "With": 1978,
      "sage": 1979,
      "boss": 1980,
      "giant": 1981,
      "joke": 1982,
      "erry": 1983,
      "forget": 1984,
      "ship": 1985,
      "pra": 1986,
      "moon": 1987,
      "worm": 1988,
      "taste": 1989,
      "grumpy": 1990,
      "wing": 1991,
      "machine": 1992,
      "coun": 1993,
      "thin": 1994,
      "step": 1995,
      "bri": 1996,
      "grab": 1997,
      "att": 1998,
      "rad": 1999,
      "peace": 2000,
      "Chirp": 2001,
      "sour": 2002,
      "ined": 2003,
      "daddy": 2004,
      "fing": 2005,
      "suddenly": 2006,
      "landed": 2007,
      "hidden": 2008,
      "wasn": 2009,
      "write": 2010,
      "confused": 2011,
      "chased": 2012,
      "inte": 2013,
      "ert": 2014,
      "fruits": 2015,
      "myster": 2016,
      "smooth": 2017,
      "cage": 2018,
      "stepped": 2019,
      "oven": 2020,
      "adventures": 2021,
      "missed": 2022,
      "takes": 2023,
      "selfish": 2024,
      "ggy": 2025,
      "kin": 2026,
      "tu": 2027,
      "sheep": 2028,
      "messy": 2029,
      "across": 2030,
      "dest": 2031,
      "cop": 2032,
      "pan": 2033,
      "though": 2034,
      "hero": 2035,
      "sticks": 2036,
      "ps": 2037,
      "Momo": 2038,
      "later": 2039,
      "gy": 2040,
      "io": 2041,
      "bought": 2042,
      "elly": 2043,
      "drew": 2044,
      "grate": 2045,
      "cord": 2046,
      "Chirpy": 2047,
      "ars": 2048,
      "?”": 2049,
      "loves": 2050,
      "Ollie": 2051,
      "beak": 2052,
      "line": 2053,
      "child": 2054,
      "ducks": 2055,
      "body": 2056,
      "legs": 2057,
      "covered": 2058,
      "da": 2059,
      "grateful": 2060,
      "ye": 2061,
      "fil": 2062,
      "Bunny": 2063,
      "pty": 2064,
      "hope": 2065,
      "slid": 2066,
      "empty": 2067,
      "feather": 2068,
      "Doggy": 2069,
      "sleepy": 2070,
      "zoo": 2071,
      "ions": 2072,
      "drum": 2073,
      "save": 2074,
      "ward": 2075,
      "Help": 2076,
      "smelly": 2077,
      "ban": 2078,
      "Mum": 2079,
      "Jerry": 2080,
      "clever": 2081,
      "shes": 2082,
      "interesting": 2083,
      "chick": 2084,
      "Jimmy": 2085,
      "test": 2086,
      "watching": 2087,
      "finish": 2088,
      "izzy": 2089,
      "rubb": 2090,
      "banan": 2091,
      "log": 2092,
      "gest": 2093,
      "plate": 2094,
      "faces": 2095,
      "clouds": 2096,
      "Where": 2097,
      "wolf": 2098,
      "dogs": 2099,
      "backyard": 2100,
      "izz": 2101,
      "seemed": 2102,
      "spray": 2103,
      "rank": 2104,
      "Here": 2105,
      "og": 2106,
      "prote": 2107,
      "whole": 2108,
      "fancy": 2109,
      "arms": 2110,
      "healthy": 2111,
      "gives": 2112,
      "pin": 2113,
      "rocket": 2114,
      "sent": 2115,
      "puzzle": 2116,
      "along": 2117,
      "explain": 2118,
      "tom": 2119,
      "jewel": 2120,
      "easy": 2121,
      "trouble": 2122,
      "working": 2123,
      "pract": 2124,
      "jelly": 2125,
      "tid": 2126,
      "scre": 2127,
      "maybe": 2128,
      "fake": 2129,
      "spla": 2130,
      "crayons": 2131,
      "wondered": 2132,
      "hing": 2133,
      "fron": 2134,
      "stair": 2135,
      "cape": 2136,
      "nothing": 2137,
      "ipp": 2138,
      "pool": 2139,
      "longer": 2140,
      "Bird": 2141,
      "front": 2142,
      "anyone": 2143,
      "mir": 2144,
      "queen": 2145,
      "van": 2146,
      "such": 2147,
      "sol": 2148,
      "imag": 2149,
      "hello": 2150,
      "bossy": 2151,
      "ves": 2152,
      "saved": 2153,
      "neigh": 2154,
      "smelled": 2155,
      "shirt": 2156,
      "Bobby": 2157,
      "honest": 2158,
      "vie": 2159,
      "barr": 2160,
      "berry": 2161,
      "iting": 2162,
      "lift": 2163,
      "embarr": 2164,
      "tidy": 2165,
      "weak": 2166,
      "shout": 2167,
      "Are": 2168,
      "kick": 2169,
      "puts": 2170,
      "embarrass": 2171,
      "calm": 2172,
      "plants": 2173,
      "gently": 2174,
      "coo": 2175,
      "cozy": 2176,
      "explor": 2177,
      "sco": 2178,
      "ugg": 2179,
      "mistake": 2180,
      "aser": 2181,
      "onto": 2182,
      "cross": 2183,
      "yog": 2184,
      "waiting": 2185,
      "pointed": 2186,
      "erly": 2187,
      "jumping": 2188,
      "prince": 2189,
      "forgive": 2190,
      "bul": 2191,
      "chicken": 2192,
      "Stop": 2193,
      "stret": 2194,
      "lovely": 2195,
      "bal": 2196,
      "ladder": 2197,
      "large": 2198,
      "match": 2199,
      "couch": 2200,
      "ughter": 2201,
      "deer": 2202,
      "lex": 2203,
      "lown": 2204,
      "places": 2205,
      "colle": 2206,
      "bridge": 2207,
      "return": 2208,
      "daughter": 2209,
      "dish": 2210,
      "stir": 2211,
      "raid": 2212,
      "Tiny": 2213,
      "afraid": 2214,
      "cleaned": 2215,
      "nic": 2216,
      "building": 2217,
      "tomor": 2218,
      "tomorrow": 2219,
      "law": 2220,
      "person": 2221,
      "wich": 2222,
      "ado": 2223,
      "ned": 2224,
      "sandwich": 2225,
      "asha": 2226,
      "pretended": 2227,
      "bounce": 2228,
      "ending": 2229,
      "search": 2230,
      "eth": 2231,
      "gather": 2232,
      "pizz": 2233,
      "wom": 2234,
      "boring": 2235,
      "protect": 2236,
      "ast": 2237,
      "woman": 2238,
      "teeth": 2239,
      "pri": 2240,
      "goes": 2241,
      "jog": 2242,
      "scarf": 2243,
      "hin": 2244,
      "swimming": 2245,
      "furry": 2246,
      "Your": 2247,
      "splashed": 2248,
      "number": 2249,
      "screamed": 2250,
      "true": 2251,
      "eag": 2252,
      "lazy": 2253,
      "ually": 2254,
      "fear": 2255,
      "answer": 2256,
      "ashamed": 2257,
      "pens": 2258,
      "pizza": 2259,
      "Benny": 2260,
      "brush": 2261,
      "ones": 2262,
      "nearby": 2263,
      "Sometimes": 2264,
      "powerful": 2265,
      "motor": 2266,
      "flag": 2267,
      "vous": 2268,
      "clown": 2269,
      "Ducky": 2270,
      "ress": 2271,
      "respec": 2272,
      "Will": 2273,
      "success": 2274,
      "TV": 2275,
      "polite": 2276,
      "chocol": 2277,
      "clear": 2278,
      "hose": 2279,
      "trust": 2280,
      "wearing": 2281,
      "creative": 2282,
      "case": 2283,
      "matter": 2284,
      "noisy": 2285,
      "ail": 2286,
      "dig": 2287,
      "fli": 2288,
      "ult": 2289,
      "ror": 2290,
      "tool": 2291,
      "nervous": 2292,
      "shadow": 2293,
      "smiling": 2294,
      "sold": 2295,
      "saur": 2296,
      "Bear": 2297,
      "ery": 2298,
      "drank": 2299,
      "form": 2300,
      "osaur": 2301,
      "tries": 2302,
      "oc": 2303,
      "chocolate": 2304,
      "Give": 2305,
      "impress": 2306,
      "wha": 2307,
      "dinosaur": 2308,
      "Who": 2309,
      "icro": 2310,
      "gun": 2311,
      "knee": 2312,
      "mirror": 2313,
      "gold": 2314,
      "rare": 2315,
      "cand": 2316,
      "jam": 2317,
      "carried": 2318,
      "balloons": 2319,
      "known": 2320,
      "pensive": 2321,
      "ich": 2322,
      "cri": 2323,
      "expensive": 2324,
      "ute": 2325,
      "au": 2326,
      "bald": 2327,
      "ina": 2328,
      "oppy": 2329,
      "map": 2330,
      "mysterious": 2331,
      "respect": 2332,
      "pump": 2333,
      "class": 2334,
      "march": 2335,
      "weird": 2336,
      "gate": 2337,
      "tent": 2338,
      "act": 2339,
      "Me": 2340,
      "issor": 2341,
      "snee": 2342,
      "soap": 2343,
      "icked": 2344,
      "these": 2345,
      "issors": 2346,
      "towel": 2347,
      "poor": 2348,
      "tape": 2349,
      "whale": 2350,
      "Ella": 2351,
      "feet": 2352,
      "dizzy": 2353,
      "rough": 2354,
      "andpa": 2355,
      "itter": 2356,
      "chew": 2357,
      "generous": 2358,
      "ness": 2359,
      "tory": 2360,
      "ours": 2361,
      "wake": 2362,
      "sque": 2363,
      "lead": 2364,
      "ventually": 2365,
      "sugar": 2366,
      "picnic": 2367,
      "micro": 2368,
      "ling": 2369,
      "boot": 2370,
      "journey": 2371,
      "embarrassed": 2372,
      "print": 2373,
      "Andy": 2374,
      "peaceful": 2375,
      "scissors": 2376,
      "fat": 2377,
      "mel": 2378,
      "ee": 2379,
      "kiss": 2380,
      "yelled": 2381,
      "hur": 2382,
      "glue": 2383,
      "tasted": 2384,
      "dancing": 2385,
      "lose": 2386,
      "decor": 2387,
      "oop": 2388,
      "closet": 2389,
      "crown": 2390,
      "chase": 2391,
      "ual": 2392,
      "lamp": 2393,
      "eld": 2394,
      "scare": 2395,
      "usual": 2396,
      "pay": 2397,
      "locked": 2398,
      "cele": 2399,
      "relie": 2400,
      "celebr": 2401,
      "tele": 2402,
      "spa": 2403,
      "blow": 2404,
      "stairs": 2405,
      "painted": 2406,
      "vase": 2407,
      "vide": 2408,
      "burn": 2409,
      "norm": 2410,
      "spread": 2411,
      "mixed": 2412,
      "bake": 2413,
      "wouldn": 2414,
      "Jenny": 2415,
      "getable": 2416,
      "cred": 2417,
      "gust": 2418,
      "rod": 2419,
      "mountain": 2420,
      "bean": 2421,
      "clock": 2422,
      "famous": 2423,
      "become": 2424,
      "drawing": 2425,
      "Little": 2426,
      "knocked": 2427,
      "vegetable": 2428,
      "kicked": 2429,
      "normal": 2430,
      "shark": 2431,
      "team": 2432,
      "incred": 2433,
      "Rex": 2434,
      "group": 2435,
      "ignor": 2436,
      "collect": 2437,
      "glass": 2438,
      "fine": 2439,
      "elderly": 2440,
      "thick": 2441,
      "guess": 2442,
      "lace": 2443,
      "corner": 2444,
      "frustr": 2445,
      "mighty": 2446,
      "cone": 2447,
      "incredible": 2448,
      "nail": 2449,
      "sup": 2450,
      "gas": 2451,
      "Zoom": 2452,
      "ighed": 2453,
      "breath": 2454,
      "moms": 2455,
      "Sammy": 2456,
      "balance": 2457,
      "sock": 2458,
      "space": 2459,
      "fright": 2460,
      "frag": 2461,
      "tun": 2462,
      "organized": 2463,
      "branches": 2464,
      "sell": 2465,
      "fool": 2466,
      "feed": 2467,
      "alous": 2468,
      "neighbor": 2469,
      "umble": 2470,
      "shoe": 2471,
      "which": 2472,
      "aw": 2473,
      "hel": 2474,
      "fragile": 2475,
      "jealous": 2476,
      "pair": 2477,
      "horn": 2478,
      "understood": 2479,
      "pir": 2480,
      "yarn": 2481,
      "pray": 2482,
      "exam": 2483,
      "stubb": 2484,
      "est": 2485,
      "frustrated": 2486,
      "whisper": 2487,
      "stubborn": 2488,
      "anc": 2489,
      "cher": 2490,
      "twist": 2491,
      "chest": 2492,
      "cube": 2493,
      "spent": 2494,
      "ten": 2495,
      "taught": 2496,
      "stic": 2497,
      "bark": 2498,
      "cart": 2499,
      "chang": 2500,
      "ray": 2501,
      "ancient": 2502,
      "spoiled": 2503,
      "terri": 2504,
      "relieved": 2505,
      "fier": 2506,
      "creature": 2507,
      "fierce": 2508,
      "goat": 2509,
      "owed": 2510,
      "measure": 2511,
      "barn": 2512,
      "eggs": 2513,
      "unique": 2514,
      "frightened": 2515,
      "pumpkin": 2516,
      "wrap": 2517,
      "toug": 2518,
      "wagon": 2519,
      "useful": 2520,
      "foolish": 2521,
      "straw": 2522,
      "cab": 2523,
      "dead": 2524,
      "exploring": 2525,
      "toma": 2526,
      "clay": 2527,
      "tomato": 2528,
      "dug": 2529,
      "gigg": 2530,
      "unusual": 2531,
      "present": 2532,
      "police": 2533,
      "finding": 2534,
      "clum": 2535,
      "wrote": 2536,
      "Br": 2537,
      "ity": 2538,
      "square": 2539,
      "waves": 2540,
      "hears": 2541,
      "ony": 2542,
      "soar": 2543,
      "iver": 2544,
      "dull": 2545,
      "tough": 2546,
      "tells": 2547,
      "necklace": 2548,
      "clumsy": 2549,
      "cabin": 2550,
      "tig": 2551,
      "bubbles": 2552,
      "searched": 2553,
      "nosy": 2554,
      "lu": 2555,
      "orry": 2556,
      "washed": 2557,
      "painting": 2558,
      "ham": 2559,
      "yal": 2560,
      "bathroom": 2561,
      "paws": 2562,
      "rat": 2563,
      "ize": 2564,
      "wis": 2565,
      "cil": 2566,
      "fic": 2567,
      "bitter": 2568,
      "ipped": 2569,
      "clap": 2570,
      "asking": 2571,
      "crazy": 2572,
      "thankful": 2573,
      "Sorry": 2574,
      "ficult": 2575,
      "swan": 2576,
      "difficult": 2577,
      "ato": 2578,
      "unknown": 2579,
      "Today": 2580,
      "witch": 2581,
      "rose": 2582,
      "bloom": 2583,
      "pencil": 2584,
      "gloom": 2585,
      "meal": 2586,
      "sword": 2587,
      "ife": 2588,
      "finger": 2589,
      "sca": 2590,
      "jet": 2591,
      "lin": 2592,
      "gloomy": 2593,
      "loyal": 2594,
      "Many": 2595,
      "wealthy": 2596,
      "zip": 2597,
      "moving": 2598,
      "cats": 2599,
      "guit": 2600,
      "cate": 2601,
      "joined": 2602,
      "terrible": 2603,
      "dove": 2604,
      "changed": 2605,
      "value": 2606,
      "anut": 2607,
      "yours": 2608,
      "nuts": 2609,
      "stri": 2610,
      "salad": 2611,
      "bers": 2612,
      "iant": 2613,
      "rise": 2614,
      "order": 2615,
      "cane": 2616,
      "selves": 2617,
      "Ted": 2618,
      "Brown": 2619,
      "potato": 2620,
      "tiger": 2621,
      "shoot": 2622,
      "lexible": 2623,
      "Instead": 2624,
      "knowing": 2625,
      "exciting": 2626,
      "hairy": 2627,
      "cheap": 2628,
      "lif": 2629,
      "guitar": 2630,
      "enorm": 2631,
      "enormous": 2632,
      "irsty": 2633,
      "yourself": 2634,
      "adventur": 2635,
      "cro": 2636,
      "marble": 2637,
      "bored": 2638,
      "fla": 2639,
      "record": 2640,
      "remind": 2641,
      "smaller": 2642,
      "pepper": 2643,
      "acorn": 2644,
      "adventurous": 2645,
      "stuff": 2646,
      "agree": 2647,
      "hats": 2648,
      "solve": 2649,
      "sunshine": 2650,
      "flash": 2651,
      "knife": 2652,
      "flexible": 2653,
      "snacks": 2654,
      "delicate": 2655,
      "dle": 2656,
      "lliant": 2657,
      "coura": 2658,
      "disgust": 2659,
      "shore": 2660,
      "nods": 2661,
      "thirsty": 2662,
      "brilliant": 2663,
      "market": 2664,
      "dough": 2665,
      "upid": 2666,
      "res": 2667,
      "frown": 2668,
      "banana": 2669,
      "stat": 2670,
      "seeds": 2671,
      "asleep": 2672,
      "counted": 2673,
      "heal": 2674,
      "Ow": 2675,
      "sport": 2676,
      "mailbox": 2677,
      "rane": 2678,
      "stage": 2679,
      "trick": 2680,
      "hoop": 2681,
      "ungle": 2682,
      "St": 2683,
      "ident": 2684,
      "jungle": 2685,
      "supp": 2686,
      "squee": 2687,
      "stupid": 2688,
      "disgusting": 2689,
      "page": 2690,
      "explained": 2691,
      "umbre": 2692,
      "jolly": 2693,
      "dge": 2694,
      "cater": 2695,
      "flies": 2696,
      "caterpill": 2697,
      "dep": 2698,
      "fridge": 2699,
      "ilt": 2700,
      "Jake": 2701,
      "igin": 2702,
      "four": 2703,
      "ular": 2704,
      "obed": 2705,
      "iddle": 2706,
      "relax": 2707,
      "island": 2708,
      "sunflower": 2709,
      "crane": 2710,
      "iginal": 2711,
      "medic": 2712,
      "epend": 2713,
      "iness": 2714,
      "harm": 2715,
      "shiver": 2716,
      "See": 2717,
      "goose": 2718,
      "eng": 2719,
      "spring": 2720,
      "ates": 2721,
      "stove": 2722,
      "obedient": 2723,
      "gets": 2724,
      "suit": 2725,
      "using": 2726,
      "del": 2727,
      "independ": 2728,
      "Tr": 2729,
      "medicine": 2730,
      "verse": 2731,
      "rug": 2732,
      "Emily": 2733,
      "original": 2734,
      "gem": 2735,
      "batter": 2736,
      "stones": 2737,
      "sighed": 2738,
      "vegetables": 2739,
      "stal": 2740,
      "stamp": 2741,
      "mark": 2742,
      "port": 2743,
      "careless": 2744,
      "Lu": 2745,
      "successful": 2746,
      "jeep": 2747,
      "carrots": 2748,
      "depend": 2749,
      "men": 2750,
      "cries": 2751,
      "popcorn": 2752,
      "sauce": 2753,
      "study": 2754,
      "independent": 2755,
      "almost": 2756,
      "middle": 2757,
      "pal": 2758,
      "spit": 2759,
      "caterpillar": 2760,
      "fearful": 2761,
      "escape": 2762,
      "inky": 2763,
      "belt": 2764,
      "press": 2765,
      "pebb": 2766,
      "brace": 2767,
      "parrot": 2768,
      "serious": 2769,
      "eager": 2770,
      "ountain": 2771,
      "bedroom": 2772,
      "helmet": 2773,
      "statue": 2774,
      "pasta": 2775,
      "peanut": 2776,
      "raven": 2777,
      "acket": 2778,
      "fountain": 2779,
      "jacket": 2780,
      "umbrella": 2781,
      "belonged": 2782,
      "filthy": 2783,
      "borrow": 2784,
      "comb": 2785,
      "houses": 2786,
      "design": 2787,
      "prize": 2788,
      "liz": 2789,
      "erable": 2790,
      "hay": 2791,
      "standing": 2792,
      "melon": 2793,
      "bracelet": 2794,
      "raced": 2795,
      "miserable": 2796,
      "uli": 2797,
      "taken": 2798,
      "gum": 2799,
      "avo": 2800,
      "lean": 2801,
      "fork": 2802,
      "crayon": 2803,
      "triang": 2804,
      "web": 2805,
      "impressive": 2806,
      "fig": 2807,
      "choose": 2808,
      "steal": 2809,
      "nel": 2810,
      "oured": 2811,
      "tied": 2812,
      "True": 2813,
      "vest": 2814,
      "lifted": 2815,
      "Mummy": 2816,
      "spotted": 2817,
      "slipped": 2818,
      "liable": 2819,
      "thoughtful": 2820,
      "tank": 2821,
      "ased": 2822,
      "cer": 2823,
      "dependable": 2824,
      "wip": 2825,
      "Peter": 2826,
      "arrow": 2827,
      "toast": 2828,
      "built": 2829,
      "arage": 2830,
      "Even": 2831,
      "garage": 2832,
      "crack": 2833,
      "news": 2834,
      "lid": 2835,
      "dolp": 2836,
      "boats": 2837,
      "crawled": 2838,
      "mole": 2839,
      "ipe": 2840,
      "scale": 2841,
      "giving": 2842,
      "picks": 2843,
      "bottom": 2844,
      "iano": 2845,
      "cheerful": 2846,
      "char": 2847,
      "dile": 2848,
      "smoke": 2849,
      "shroom": 2850,
      "hammer": 2851,
      "piano": 2852,
      "shows": 2853,
      "moder": 2854,
      "jug": 2855,
      "codile": 2856,
      "hurts": 2857,
      "oin": 2858,
      "aunt": 2859,
      "serve": 2860,
      "modern": 2861,
      "wrapped": 2862,
      "waff": 2863,
      "mask": 2864,
      "cco": 2865,
      "reliable": 2866,
      "tunnel": 2867,
      "nder": 2868,
      "host": 2869,
      "boys": 2870,
      "mushroom": 2871,
      "hopping": 2872,
      "squash": 2873,
      "rubbed": 2874,
      "movie": 2875,
      "sink": 2876,
      "pear": 2877,
      "flute": 2878,
      "popular": 2879,
      "sil": 2880,
      "rid": 2881,
      "cam": 2882,
      "rub": 2883,
      "tax": 2884,
      "beet": 2885,
      "licop": 2886,
      "licopter": 2887,
      "compet": 2888,
      "crystal": 2889,
      "needs": 2890,
      "appoin": 2891,
      "crocodile": 2892,
      "lizard": 2893,
      "dinary": 2894,
      "llip": 2895,
      "llipop": 2896,
      "troubled": 2897,
      "ordinary": 2898,
      "helicopter": 2899,
      "competit": 2900,
      "pige": 2901,
      "playful": 2902,
      "tricks": 2903,
      "humble": 2904,
      "lollipop": 2905,
      "kissed": 2906,
      "cap": 2907,
      "uncomfortable": 2908,
      "amond": 2909,
      "licked": 2910,
      "taxi": 2911,
      "muff": 2912,
      "Sus": 2913,
      "anx": 2914,
      "angel": 2915,
      "edy": 2916,
      "grace": 2917,
      "pants": 2918,
      "torn": 2919,
      "diamond": 2920,
      "cident": 2921,
      "twig": 2922,
      "helps": 2923,
      "anxious": 2924,
      "camera": 2925,
      "disappoin": 2926,
      "quar": 2927,
      "ghost": 2928,
      "ruined": 2929,
      "lime": 2930,
      "tears": 2931,
      "weet": 2932,
      "ext": 2933,
      "env": 2934,
      "ilty": 2935,
      "happiness": 2936,
      "guilty": 2937,
      "tube": 2938,
      "bull": 2939,
      "helpless": 2940,
      "walks": 2941,
      "aero": 2942,
      "une": 2943,
      "cean": 2944,
      "load": 2945,
      "passed": 2946,
      "ocean": 2947,
      "Next": 2948,
      "radio": 2949,
      "deaf": 2950,
      "stretch": 2951,
      "ears": 2952,
      "fluffy": 2953,
      "polish": 2954,
      "runk": 2955,
      "meant": 2956,
      "bees": 2957,
      "coco": 2958,
      "candle": 2959,
      "cact": 2960,
      "harmless": 2961,
      "Poppy": 2962,
      "mop": 2963,
      "answered": 2964,
      "compl": 2965,
      "stum": 2966,
      "trum": 2967,
      "beetle": 2968,
      "shape": 2969,
      "quarrel": 2970,
      "tti": 2971,
      "Pipp": 2972,
      "collar": 2973,
      "lit": 2974,
      "flashlight": 2975,
      "engine": 2976,
      "poured": 2977,
      "harder": 2978,
      "persist": 2979,
      "cereal": 2980,
      "tag": 2981,
      "cado": 2982,
      "passion": 2983,
      "trumpet": 2984,
      "invited": 2985,
      "spill": 2986,
      "melt": 2987,
      "office": 2988,
      "comput": 2989,
      "scoot": 2990,
      "triangle": 2991,
      "tooth": 2992,
      "shade": 2993,
      "accident": 2994,
      "inse": 2995,
      "hip": 2996,
      "mug": 2997,
      "gular": 2998,
      "yogurt": 2999,
      "aghe": 3000,
      "aghetti": 3001,
      "screen": 3002,
      "cush": 3003,
      "Buzz": 3004,
      "barber": 3005,
      "regular": 3006,
      "disappointed": 3007,
      "figure": 3008,
      "avocado": 3009,
      "cactus": 3010,
      "roof": 3011,
      "Fo": 3012,
      "thie": 3013,
      "sheet": 3014,
      "pale": 3015,
      "asses": 3016,
      "rice": 3017,
      "whispered": 3018,
      "power": 3019,
      "gue": 3020,
      "create": 3021,
      "tellig": 3022,
      "comple": 3023,
      "pipe": 3024,
      "harsh": 3025,
      "intellig": 3026,
      "libr": 3027,
      "practiced": 3028,
      "rode": 3029,
      "uth": 3030,
      "gifted": 3031,
      "ubby": 3032,
      "velo": 3033,
      "thread": 3034,
      "spaghetti": 3035,
      "icycle": 3036,
      "vol": 3037,
      "dust": 3038,
      "tur": 3039,
      "cycle": 3040,
      "Dan": 3041,
      "sailed": 3042,
      "compassion": 3043,
      "forward": 3044,
      "speed": 3045,
      "bicycle": 3046,
      "persistent": 3047,
      "ccoli": 3048,
      "envelo": 3049,
      "Mis": 3050,
      "cocoa": 3051,
      "Polly": 3052,
      "nod": 3053,
      "stream": 3054,
      "mitten": 3055,
      "computer": 3056,
      "questions": 3057,
      "feathers": 3058,
      "tic": 3059,
      "pigeon": 3060,
      "desk": 3061,
      "shrimp": 3062,
      "glove": 3063,
      "turkey": 3064,
      "cano": 3065,
      "envious": 3066,
      "azz": 3067,
      "charming": 3068,
      "knot": 3069,
      "stronger": 3070,
      "tem": 3071,
      "raft": 3072,
      "magnet": 3073,
      "coins": 3074,
      "ctive": 3075,
      "boxes": 3076,
      "seal": 3077,
      "wheat": 3078,
      "atch": 3079,
      "comet": 3080,
      "trunk": 3081,
      "chubby": 3082,
      "friendship": 3083,
      "carpet": 3084,
      "dreams": 3085,
      "spun": 3086,
      "aeroplane": 3087,
      "restless": 3088,
      "Alice": 3089,
      "intelligent": 3090,
      "half": 3091,
      "bandage": 3092,
      "salt": 3093,
      "crawl": 3094,
      "deliver": 3095,
      "Bet": 3096,
      "roy": 3097,
      "mill": 3098,
      "sle": 3099,
      "week": 3100,
      "volcano": 3101,
      "acce": 3102,
      "vio": 3103,
      "vine": 3104,
      "onion": 3105,
      "video": 3106,
      "attra": 3107,
      "broccoli": 3108,
      "cauli": 3109,
      "track": 3110,
      "leo": 3111,
      "ticket": 3112,
      "louder": 3113,
      "essie": 3114,
      "thief": 3115,
      "pebble": 3116,
      "destroy": 3117,
      "judge": 3118,
      "sleeping": 3119,
      "numbers": 3120,
      "alert": 3121,
      "yaw": 3122,
      "insect": 3123,
      "haircut": 3124,
      "Pet": 3125,
      "eventually": 3126,
      "excite": 3127,
      "spital": 3128,
      "hospital": 3129,
      "Lulu": 3130,
      "returned": 3131,
      "eraser": 3132,
      "happening": 3133,
      "pour": 3134,
      "planet": 3135,
      "graceful": 3136,
      "decide": 3137,
      "learning": 3138,
      "lying": 3139,
      "leopar": 3140,
      "urse": 3141,
      "nicely": 3142,
      "celebrate": 3143,
      "cauliflower": 3144,
      "keeper": 3145,
      "competitive": 3146,
      "poem": 3147,
      "ignorant": 3148,
      "sau": 3149,
      "glasses": 3150,
      "hun": 3151,
      "peach": 3152,
      "catter": 3153,
      "sausage": 3154,
      "lk": 3155,
      "attractive": 3156,
      "zzy": 3157,
      "curt": 3158,
      "soldier": 3159,
      "dolphin": 3160,
      "parade": 3161,
      "curtain": 3162,
      "scatter": 3163,
      "travel": 3164,
      "Car": 3165,
      "atient": 3166,
      "ator": 3167,
      "mes": 3168,
      "violin": 3169,
      "deter": 3170,
      "base": 3171,
      "compassionate": 3172,
      "wheels": 3173,
      "yach": 3174,
      "ud": 3175,
      "envelope": 3176,
      "Bye": 3177,
      "bulb": 3178,
      "barrel": 3179,
      "Is": 3180,
      "Pete": 3181,
      "sort": 3182,
      "pho": 3183,
      "bin": 3184,
      "cob": 3185,
      "motorcycle": 3186,
      "pit": 3187,
      "firework": 3188,
      "photo": 3189,
      "ither": 3190,
      "bubble": 3191,
      "question": 3192,
      "father": 3193,
      "shells": 3194,
      "trap": 3195,
      "oat": 3196,
      "leopard": 3197,
      "float": 3198,
      "scooter": 3199,
      "needle": 3200,
      "teas": 3201,
      "perform": 3202,
      "determin": 3203,
      "tern": 3204,
      "yacht": 3205,
      "dom": 3206,
      "truth": 3207,
      "cricket": 3208,
      "ador": 3209,
      "cel": 3210,
      "hook": 3211,
      "pony": 3212,
      "igator": 3213,
      "rem": 3214,
      "homes": 3215,
      "uncle": 3216,
      "Birdy": 3217,
      "bushes": 3218,
      "guard": 3219,
      "grown": 3220,
      "cushion": 3221,
      "spell": 3222,
      "tire": 3223,
      "cooked": 3224,
      "Sp": 3225,
      "Tina": 3226,
      "packed": 3227,
      "adorable": 3228,
      "skin": 3229,
      "chalk": 3230,
      "impatient": 3231,
      "themselves": 3232,
      "celery": 3233,
      "tray": 3234,
      "purse": 3235,
      "pengu": 3236,
      "snif": 3237,
      "speak": 3238,
      "lively": 3239,
      "alligator": 3240,
      "walls": 3241,
      "prune": 3242,
      "radish": 3243,
      "saying": 3244,
      "distant": 3245,
      "city": 3246,
      "meat": 3247,
      "post": 3248,
      "illa": 3249,
      "cleaning": 3250,
      "forth": 3251,
      "bounced": 3252,
      "counting": 3253,
      "spinning": 3254,
      "Tweet": 3255,
      "marry": 3256,
      "behave": 3257,
      "slept": 3258,
      "steak": 3259,
      "thus": 3260,
      "metal": 3261,
      "skip": 3262,
      "enthus": 3263,
      "wallet": 3264,
      "biggest": 3265,
      "film": 3266,
      "wiped": 3267,
      "vator": 3268,
      "impro": 3269,
      "scr": 3270,
      "Well": 3271,
      "pole": 3272,
      "shut": 3273,
      "oy": 3274,
      "elevator": 3275,
      "edge": 3276,
      "dive": 3277,
      "laughs": 3278,
      "pattern": 3279,
      "courage": 3280,
      "skipped": 3281,
      "isted": 3282,
      "unlock": 3283,
      "distur": 3284,
      "az": 3285,
      "bags": 3286,
      "diary": 3287,
      "Susie": 3288,
      "nal": 3289,
      "armchair": 3290,
      "affe": 3291,
      "screw": 3292,
      "showing": 3293,
      "club": 3294,
      "tap": 3295,
      "earth": 3296,
      "journal": 3297,
      "ject": 3298,
      "gathered": 3299,
      "nurse": 3300,
      "jellyfish": 3301,
      "seem": 3302,
      "sweater": 3303,
      "stranger": 3304,
      "bulance": 3305,
      "bump": 3306,
      "chain": 3307,
      "lights": 3308,
      "ambulance": 3309,
      "skull": 3310,
      "aged": 3311,
      "loudly": 3312,
      "notebook": 3313,
      "folder": 3314,
      "shield": 3315,
      "Rose": 3316,
      "mixer": 3317,
      "ito": 3318,
      "wire": 3319,
      "library": 3320,
      "buttons": 3321,
      "nament": 3322,
      "playground": 3323,
      "kne": 3324,
      "hunter": 3325,
      "pointing": 3326,
      "loop": 3327,
      "squito": 3328,
      "trucks": 3329,
      "decorate": 3330,
      "tummy": 3331,
      "station": 3332,
      "falls": 3333,
      "cupboard": 3334,
      "gri": 3335,
      "herb": 3336,
      "fed": 3337,
      "knows": 3338,
      "ornament": 3339,
      "modest": 3340,
      "mosquito": 3341,
      "lives": 3342,
      "giraffe": 3343,
      "attic": 3344,
      "oby": 3345,
      "sailor": 3346,
      "yet": 3347,
      "Lo": 3348,
      "whenever": 3349,
      "Sunny": 3350,
      "disappeared": 3351,
      "strawberry": 3352,
      "ceed": 3353,
      "package": 3354,
      "once": 3355,
      "ribb": 3356,
      "drop": 3357,
      "steps": 3358,
      "pirate": 3359,
      "People": 3360,
      "brothers": 3361,
      "Miss": 3362,
      "tear": 3363,
      "hipp": 3364,
      "topus": 3365,
      "kele": 3366,
      "hall": 3367,
      "support": 3368,
      "keleton": 3369,
      "cli": 3370,
      "hippo": 3371,
      "repe": 3372,
      "stack": 3373,
      "driving": 3374,
      "split": 3375,
      "cable": 3376,
      "calling": 3377,
      "lood": 3378,
      "fre": 3379,
      "football": 3380,
      "tho": 3381,
      "aff": 3382,
      "wishes": 3383,
      "coal": 3384,
      "tripped": 3385,
      "complete": 3386,
      "poke": 3387,
      "added": 3388,
      "root": 3389,
      "obile": 3390,
      "octopus": 3391,
      "Betty": 3392,
      "succeed": 3393,
      "tomobile": 3394,
      "kayak": 3395,
      "?\".": 3396,
      "determined": 3397,
      "repair": 3398,
      "mild": 3399,
      "reading": 3400,
      "thunder": 3401,
      "automobile": 3402,
      "complain": 3403,
      "kindness": 3404,
      "suggest": 3405,
      "utes": 3406,
      "scope": 3407,
      "rolling": 3408,
      "unk": 3409,
      "gor": 3410,
      "uring": 3411,
      "iastic": 3412,
      "send": 3413,
      "enthusiastic": 3414,
      "hive": 3415,
      "math": 3416,
      "sneeze": 3417,
      "drawer": 3418,
      "chess": 3419,
      "adow": 3420,
      "yoga": 3421,
      "flea": 3422,
      "carto": 3423,
      "growl": 3424,
      "five": 3425,
      "htub": 3426,
      "inde": 3427,
      "tress": 3428,
      "meadow": 3429,
      "golf": 3430,
      "means": 3431,
      "bathtub": 3432,
      "tro": 3433,
      "Toby": 3434,
      "skeleton": 3435,
      "veil": 3436,
      "shel": 3437,
      "sity": 3438,
      "cups": 3439,
      "spend": 3440,
      "flame": 3441,
      "penny": 3442,
      "Bessie": 3443,
      "troph": 3444,
      "Zip": 3445,
      "Mar": 3446,
      "Pippin": 3447,
      "sunglasses": 3448,
      "glowing": 3449,
      "itself": 3450,
      "oyster": 3451,
      "drawings": 3452,
      "vet": 3453,
      "ache": 3454,
      "pine": 3455,
      "muffin": 3456,
      "Snow": 3457,
      "switch": 3458,
      "stume": 3459,
      "powder": 3460,
      "costume": 3461,
      ",”": 3462,
      "dess": 3463,
      "pun": 3464,
      "Did": 3465,
      "medal": 3466,
      "maze": 3467,
      "iron": 3468,
      "pastry": 3469,
      "hedge": 3470,
      "minutes": 3471,
      "makeup": 3472,
      "handle": 3473,
      "telephone": 3474,
      "Un": 3475,
      "aky": 3476,
      "Rob": 3477,
      "waffle": 3478,
      "knight": 3479,
      "son": 3480,
      "mattress": 3481,
      "shocked": 3482,
      "goal": 3483,
      "frame": 3484,
      "spir": 3485,
      "trophy": 3486,
      "missile": 3487,
      "separ": 3488,
      "wife": 3489,
      "managed": 3490,
      "Grandpa": 3491,
      "Spike": 3492,
      "zi": 3493,
      "eye": 3494,
      "struc": 3495,
      "grapes": 3496,
      "magaz": 3497,
      "ait": 3498,
      "zebra": 3499,
      "camp": 3500,
      "file": 3501,
      "cobweb": 3502,
      "wool": 3503,
      "rushed": 3504,
      "chor": 3505,
      "message": 3506,
      "either": 3507,
      "bathe": 3508,
      "microphone": 3509,
      "leash": 3510,
      "vend": 3511,
      "fee": 3512,
      "weep": 3513,
      "view": 3514,
      "staff": 3515,
      "barking": 3516,
      "basketball": 3517,
      "safely": 3518,
      "whist": 3519,
      "washer": 3520,
      "ature": 3521,
      "offee": 3522,
      "tol": 3523,
      "slides": 3524,
      "mp": 3525,
      "trem": 3526,
      "bananas": 3527,
      "gorilla": 3528,
      "istol": 3529,
      "giggled": 3530,
      "hoc": 3531,
      "those": 3532,
      "fis": 3533,
      "Wait": 3534,
      "hockey": 3535,
      "cooler": 3536,
      "urch": 3537,
      "spear": 3538,
      "sof": 3539,
      "Mrs": 3540,
      "vendor": 3541,
      "grandpa": 3542,
      "early": 3543,
      "mint": 3544,
      "marched": 3545,
      "tion": 3546,
      "Al": 3547,
      "remain": 3548,
      "flour": 3549,
      "hotel": 3550,
      "sty": 3551,
      "gain": 3552,
      "dessert": 3553,
      "pas": 3554,
      "hic": 3555,
      "ilot": 3556,
      "Would": 3557,
      "cell": 3558,
      "may": 3559,
      "often": 3560,
      "otter": 3561,
      "church": 3562,
      "uel": 3563,
      "pee": 3564,
      "cooking": 3565,
      "Kim": 3566,
      "vehic": 3567,
      "temple": 3568,
      "ey": 3569,
      "dishwasher": 3570,
      "anchor": 3571,
      "pretending": 3572,
      "organize": 3573,
      "sight": 3574,
      "pistol": 3575,
      "thinking": 3576,
      "tools": 3577,
      "Teddy": 3578,
      "battery": 3579,
      "fireman": 3580,
      "oil": 3581,
      "opens": 3582,
      "realised": 3583,
      "laser": 3584,
      "sne": 3585,
      "patch": 3586,
      "umb": 3587,
      "hours": 3588,
      "robe": 3589,
      "brea": 3590,
      "pilot": 3591,
      "spirit": 3592,
      "buck": 3593,
      "sandbox": 3594,
      "baseball": 3595,
      "fac": 3596,
      "whip": 3597,
      "grill": 3598,
      "trash": 3599,
      "rhin": 3600,
      "lotion": 3601,
      "suppl": 3602,
      "fort": 3603,
      "factory": 3604,
      "seum": 3605,
      "short": 3606,
      "museum": 3607,
      "coffee": 3608,
      "valu": 3609,
      "cardboard": 3610,
      "avail": 3611,
      "wardro": 3612,
      "wardrobe": 3613,
      "ugged": 3614,
      "shrink": 3615,
      "hanging": 3616,
      "check": 3617,
      "napkin": 3618,
      "towers": 3619,
      "blackboard": 3620,
      "quit": 3621,
      "xy": 3622,
      "picking": 3623,
      "excitement": 3624,
      "reward": 3625,
      "dreamed": 3626,
      "penguin": 3627,
      "passport": 3628,
      "Before": 3629,
      "fauce": 3630,
      "available": 3631,
      "igloo": 3632,
      "laun": 3633,
      "stumbled": 3634,
      "sla": 3635,
      "juicy": 3636,
      "aroo": 3637,
      "angaroo": 3638,
      "already": 3639,
      "Everywhere": 3640,
      "allowed": 3641,
      "holds": 3642,
      "novel": 3643,
      "beep": 3644,
      "ense": 3645,
      "fingers": 3646,
      "tornado": 3647,
      "faucet": 3648,
      "hanger": 3649,
      "htray": 3650,
      "fisher": 3651,
      "size": 3652,
      "chim": 3653,
      "oak": 3654,
      "laundry": 3655,
      "chimney": 3656,
      "telling": 3657,
      "ately": 3658,
      "kangaroo": 3659,
      "mule": 3660,
      "cherries": 3661,
      "gging": 3662,
      "aid": 3663,
      "mummy": 3664,
      "spilled": 3665,
      "notice": 3666,
      "practice": 3667,
      "por": 3668,
      "wander": 3669,
      "snap": 3670,
      "weigh": 3671,
      "enjoying": 3672,
      "hut": 3673,
      "imagine": 3674,
      "hurry": 3675,
      "bel": 3676,
      "reinde": 3677,
      "microscope": 3678,
      "sub": 3679,
      "ocero": 3680,
      "fastest": 3681,
      "Co": 3682,
      "cheer": 3683,
      "magazine": 3684,
      "anda": 3685,
      "Mandy": 3686,
      "fireplace": 3687,
      "umber": 3688,
      "listening": 3689,
      "doors": 3690,
      "cabinet": 3691,
      "ashtray": 3692,
      "rake": 3693,
      "bathrobe": 3694,
      "palace": 3695,
      "cows": 3696,
      "Dolly": 3697,
      "improve": 3698,
      "enny": 3699,
      "colour": 3700,
      "falling": 3701,
      "oceros": 3702,
      "arian": 3703,
      "skirt": 3704,
      "discovered": 3705,
      "blin": 3706,
      "stared": 3707,
      "reindeer": 3708,
      "miner": 3709,
      "silver": 3710,
      "trail": 3711,
      "memor": 3712,
      "roared": 3713,
      "stretched": 3714,
      "vision": 3715,
      "bill": 3716,
      "fog": 3717,
      "iction": 3718,
      "toile": 3719,
      "valuable": 3720,
      "taller": 3721,
      "fisherman": 3722,
      "happier": 3723,
      "object": 3724,
      "shamp": 3725,
      "ictionary": 3726,
      "shampoo": 3727,
      "oats": 3728,
      "holes": 3729,
      "ire": 3730,
      "offered": 3731,
      "rhinoceros": 3732,
      "boots": 3733,
      "climbing": 3734,
      "opera": 3735,
      "toilet": 3736,
      "zipper": 3737,
      "mineral": 3738,
      "names": 3739,
      "Frog": 3740,
      "vice": 3741,
      "fuel": 3742,
      "jewelry": 3743,
      "perfu": 3744,
      "Or": 3745,
      "television": 3746,
      "reverse": 3747,
      "axe": 3748,
      "jokes": 3749,
      "gn": 3750,
      "sym": 3751,
      "raz": 3752,
      "sparkly": 3753,
      "stops": 3754,
      "calend": 3755,
      "jumps": 3756,
      "bury": 3757,
      "pressed": 3758,
      "perfume": 3759,
      "razor": 3760,
      "super": 3761,
      "zer": 3762,
      "bol": 3763,
      "attach": 3764,
      "sses": 3765,
      "int": 3766,
      "dictionary": 3767,
      "rece": 3768,
      "neat": 3769,
      "zag": 3770,
      "popped": 3771,
      "gasped": 3772,
      "Pandy": 3773,
      "papers": 3774,
      "calendar": 3775,
      "unpack": 3776,
      "resist": 3777,
      "creek": 3778,
      "symbol": 3779,
      "gear": 3780,
      "pinch": 3781,
      "tuna": 3782,
      "subway": 3783,
      "freezer": 3784,
      "letters": 3785,
      "chose": 3786,
      "Ouch": 3787,
      "bikes": 3788,
      "porch": 3789,
      "spoke": 3790,
      "helper": 3791,
      "anyway": 3792,
      "ival": 3793,
      "shaking": 3794,
      "wic": 3795,
      "wiches": 3796,
      "tightly": 3797,
      "ended": 3798,
      "newspaper": 3799,
      "igzag": 3800,
      "aur": 3801,
      "sandwiches": 3802,
      "against": 3803,
      "billboard": 3804,
      "blouse": 3805,
      "stickers": 3806,
      "swinging": 3807,
      "incl": 3808,
      "restaur": 3809,
      "bookcase": 3810,
      "gym": 3811,
      "lic": 3812,
      "squirrels": 3813,
      "vehicle": 3814,
      "buckle": 3815,
      "nature": 3816,
      "growing": 3817,
      "belongs": 3818,
      "butterflies": 3819,
      "restaurant": 3820,
      "swamp": 3821,
      "hate": 3822,
      "mustache": 3823,
      "stirred": 3824,
      "cards": 3825,
      "Ellie": 3826,
      "lightning": 3827,
      "fest": 3828,
      "reco": 3829,
      "distance": 3830,
      "disturb": 3831,
      "discover": 3832,
      "poon": 3833,
      "recogn": 3834,
      "beef": 3835,
      "rubber": 3836,
      "festival": 3837,
      "doesn": 3838,
      "crib": 3839,
      "musician": 3840,
      "noon": 3841,
      "alarm": 3842,
      "drain": 3843,
      "model": 3844,
      "ik": 3845,
      "cted": 3846,
      "advice": 3847,
      "sweetie": 3848,
      "apr": 3849,
      "sofa": 3850,
      "Dave": 3851,
      "separate": 3852,
      "surf": 3853,
      "comm": 3854,
      "circles": 3855,
      "breakfast": 3856,
      "arry": 3857,
      "blueberries": 3858,
      "tutor": 3859,
      "shelter": 3860,
      "airport": 3861,
      "ured": 3862,
      "asis": 3863,
      "tease": 3864,
      "knob": 3865,
      "ummer": 3866,
      "mall": 3867,
      "These": 3868,
      "bookshelf": 3869,
      "Johnny": 3870,
      "frogs": 3871,
      "Red": 3872,
      "lands": 3873,
      "Bubb": 3874,
      "Spe": 3875,
      "junk": 3876,
      "Bill": 3877,
      "riding": 3878,
      "pleased": 3879,
      "lend": 3880,
      "display": 3881,
      "wipe": 3882,
      "ahead": 3883,
      "oasis": 3884,
      "soil": 3885,
      "resc": 3886,
      "rescue": 3887,
      "painter": 3888,
      "rail": 3889,
      "squeeze": 3890,
      "leaving": 3891,
      "pedal": 3892,
      "ination": 3893,
      "lumber": 3894,
      "peeked": 3895,
      "poked": 3896,
      "Bow": 3897,
      "quiz": 3898,
      "disappear": 3899,
      "chance": 3900,
      "trains": 3901,
      "tub": 3902,
      "knock": 3903,
      "extra": 3904,
      "ometer": 3905,
      "mometer": 3906,
      "Boun": 3907,
      "refused": 3908,
      "repeat": 3909,
      "point": 3910,
      "dar": 3911,
      "birdcage": 3912,
      "rules": 3913,
      "ga": 3914,
      "winter": 3915,
      "ost": 3916,
      "sounded": 3917,
      "happens": 3918,
      "dancer": 3919,
      "teaspoon": 3920,
      "waste": 3921,
      "theater": 3922,
      "comfort": 3923,
      "weather": 3924,
      "invite": 3925,
      "carrying": 3926,
      "swung": 3927,
      "reef": 3928,
      "trade": 3929,
      "Have": 3930,
      "oph": 3931,
      "Jazz": 3932,
      "cliff": 3933,
      "accept": 3934,
      "uage": 3935,
      "anguage": 3936,
      "lawn": 3937,
      "uniform": 3938,
      "Soph": 3939,
      "admi": 3940,
      "leaned": 3941,
      "lab": 3942,
      "dreaming": 3943,
      "planes": 3944,
      "Lee": 3945,
      "task": 3946,
      "erator": 3947,
      "accidentally": 3948,
      "language": 3949,
      "license": 3950,
      "remove": 3951,
      "frig": 3952,
      "frigerator": 3953,
      "Buzzy": 3954,
      "pastel": 3955,
      "peek": 3956,
      "twir": 3957,
      "suff": 3958,
      "summer": 3959,
      "refrigerator": 3960,
      "!\".": 3961,
      "blinked": 3962,
      "mas": 3963,
      "panda": 3964,
      "Big": 3965,
      "Pat": 3966,
      "starts": 3967,
      "anywhere": 3968,
      "imagined": 3969,
      "stable": 3970,
      "grand": 3971,
      "thermometer": 3972,
      "admire": 3973,
      "caring": 3974,
      "classroom": 3975,
      "ceiling": 3976,
      "shower": 3977,
      "adm": 3978,
      "bove": 3979,
      "Whe": 3980,
      "Sun": 3981,
      "missing": 3982,
      "monkeys": 3983,
      "Ru": 3984,
      "warned": 3985,
      "ium": 3986,
      "wine": 3987,
      "brick": 3988,
      "respectful": 3989,
      "aced": 3990,
      "enter": 3991,
      "above": 3992,
      "cudd": 3993,
      "Lola": 3994,
      "Binky": 3995,
      "problems": 3996,
      "chasing": 3997,
      "apron": 3998,
      "Freddy": 3999,
      "lawy": 4000,
      "strugg": 4001,
      "reg": 4002,
      "freeze": 4003,
      "iture": 4004,
      "urniture": 4005,
      "label": 4006,
      "zoomed": 4007,
      "uggage": 4008,
      "bent": 4009,
      "frowned": 4010,
      "aked": 4011,
      "furniture": 4012,
      "handed": 4013,
      "sunset": 4014,
      "Eventually": 4015,
      "pages": 4016,
      "ostrich": 4017,
      "luggage": 4018,
      "mistakes": 4019,
      "alley": 4020,
      "windows": 4021,
      "ison": 4022,
      "lions": 4023,
      "suggested": 4024,
      "jail": 4025,
      "older": 4026,
      "cur": 4027,
      "grape": 4028,
      "ribbon": 4029,
      "unite": 4030,
      "spoil": 4031,
      "shouts": 4032,
      "Ge": 4033,
      "chamber": 4034,
      "structure": 4035,
      "delay": 4036,
      "fixing": 4037,
      "finds": 4038,
      "fought": 4039,
      "searching": 4040,
      "Geor": 4041,
      "tick": 4042,
      "fant": 4043,
      "surre": 4044,
      "yield": 4045,
      "lawyer": 4046,
      "ady": 4047,
      "meeting": 4048,
      "brightly": 4049,
      "choice": 4050,
      "surprises": 4051,
      "incre": 4052,
      "adium": 4053,
      "favour": 4054,
      "terin": 4055,
      "terinarian": 4056,
      "stadium": 4057,
      "fresh": 4058,
      "veterinarian": 4059,
      "proudly": 4060,
      "veal": 4061,
      "chairs": 4062,
      "iki": 4063,
      "ations": 4064,
      "Carl": 4065,
      "sadly": 4066,
      "fro": 4067,
      "Olive": 4068,
      "puddles": 4069,
      "introd": 4070,
      "Speedy": 4071,
      "reveal": 4072,
      "ranch": 4073,
      "Char": 4074,
      "favourite": 4075,
      "argue": 4076,
      "steam": 4077,
      "admired": 4078,
      "human": 4079,
      "grabs": 4080,
      "saving": 4081,
      "excitedly": 4082,
      "leak": 4083,
      "Lilly": 4084,
      "Mike": 4085,
      "oh": 4086,
      "George": 4087,
      "Bubbles": 4088,
      "appla": 4089,
      "pushing": 4090,
      "ized": 4091,
      "reminded": 4092,
      "recomm": 4093,
      "regret": 4094,
      "ues": 4095,
      "weap": 4096,
      "castles": 4097,
      "Wo": 4098,
      "apo": 4099,
      "wigg": 4100,
      "cuss": 4101,
      "matches": 4102,
      "valley": 4103,
      "forgave": 4104,
      "Wel": 4105,
      "putting": 4106,
      "evening": 4107,
      "Welcome": 4108,
      "chan": 4109,
      "vy": 4110,
      "sneezed": 4111,
      "Pau": 4112,
      "Zoomy": 4113,
      "vroom": 4114,
      "supply": 4115,
      "spade": 4116,
      "discuss": 4117,
      "pup": 4118,
      "cared": 4119,
      "ignore": 4120,
      "prepare": 4121,
      "plates": 4122,
      "country": 4123,
      "restore": 4124,
      "pulls": 4125,
      "plastic": 4126,
      "harbor": 4127,
      "sniffed": 4128,
      "Ho": 4129,
      "replace": 4130,
      "shovel": 4131,
      "raise": 4132,
      "meas": 4133,
      "given": 4134,
      "prevent": 4135,
      "mystery": 4136,
      "socks": 4137,
      "cartoon": 4138,
      "Because": 4139,
      "Ready": 4140,
      "Under": 4141,
      "sticker": 4142,
      "Kiki": 4143,
      "sudden": 4144,
      "slipper": 4145,
      "ience": 4146,
      "wre": 4147,
      "ighted": 4148,
      "player": 4149,
      "kinds": 4150,
      "ricane": 4151,
      "slippery": 4152,
      "panic": 4153,
      "hoping": 4154,
      "shone": 4155,
      "gro": 4156,
      "rained": 4157,
      "superhero": 4158,
      "Boo": 4159,
      "delighted": 4160,
      "ase": 4161,
      "Yay": 4162,
      "surrender": 4163,
      "chickens": 4164,
      "gran": 4165,
      "colourful": 4166,
      "shoulder": 4167,
      "liday": 4168,
      "Yuck": 4169,
      "softly": 4170,
      "claw": 4171,
      "holiday": 4172,
      "Dog": 4173,
      "shakes": 4174,
      "throwing": 4175,
      "barks": 4176,
      "kneel": 4177,
      "ines": 4178,
      "keeping": 4179,
      "applaud": 4180,
      "shivering": 4181,
      "pushes": 4182,
      "sunrise": 4183,
      "ason": 4184,
      "Alex": 4185,
      "thanks": 4186,
      "image": 4187,
      "tip": 4188,
      "ude": 4189,
      "lect": 4190,
      "suffer": 4191,
      "Cl": 4192,
      "points": 4193,
      "expec": 4194,
      "beg": 4195,
      "Shar": 4196,
      "imed": 4197,
      "giggle": 4198,
      "Grace": 4199,
      "copper": 4200,
      "Danny": 4201,
      "infant": 4202,
      "heads": 4203,
      "apolog": 4204,
      "End": 4205,
      "smells": 4206,
      "Happ": 4207,
      "dear": 4208,
      "chanic": 4209,
      "provide": 4210,
      "cherry": 4211,
      "hurricane": 4212,
      "warning": 4213,
      "Bee": 4214,
      "dishes": 4215,
      "meowed": 4216,
      "ince": 4217,
      "mechanic": 4218,
      "menu": 4219,
      "brighter": 4220,
      "thumb": 4221,
      "second": 4222,
      "cakes": 4223,
      "poison": 4224,
      "weapon": 4225,
      "event": 4226,
      "Joey": 4227,
      "letting": 4228,
      "laught": 4229,
      "sprayed": 4230,
      "laughter": 4231,
      "Hoppy": 4232,
      "feelings": 4233,
      "clapping": 4234,
      "score": 4235,
      "rec": 4236,
      "Sophie": 4237,
      "hy": 4238,
      "rooms": 4239,
      "splashing": 4240,
      "navy": 4241,
      "icky": 4242,
      "iest": 4243,
      "Happy": 4244,
      "universe": 4245,
      "sticky": 4246,
      "Paul": 4247,
      "Gig": 4248,
      "mit": 4249,
      "unhappy": 4250,
      "Woof": 4251,
      "Gigi": 4252,
      "cation": 4253,
      "dare": 4254,
      "Sque": 4255,
      "massage": 4256,
      "greedy": 4257,
      "coats": 4258,
      "ener": 4259,
      "Su": 4260,
      "alive": 4261,
      "bend": 4262,
      "breaks": 4263,
      "Qu": 4264,
      "mand": 4265,
      "crash": 4266,
      "invit": 4267,
      "demand": 4268,
      "Hen": 4269,
      "sie": 4270,
      "ating": 4271,
      "Annie": 4272,
      "swee": 4273,
      "wreck": 4274,
      "sigh": 4275,
      "Mag": 4276,
      "trusted": 4277,
      "somewhere": 4278,
      "eaten": 4279,
      "punish": 4280,
      "permit": 4281,
      "Charlie": 4282,
      "toe": 4283,
      "delight": 4284,
      "skill": 4285,
      "erc": 4286,
      "examine": 4287,
      "parts": 4288,
      "versity": 4289,
      "mention": 4290,
      "nes": 4291,
      "slip": 4292,
      "chirp": 4293,
      "raining": 4294,
      "brain": 4295,
      "Henry": 4296,
      "strip": 4297,
      "throws": 4298,
      "jogged": 4299,
      "starting": 4300,
      "university": 4301,
      "drops": 4302,
      "pirates": 4303,
      "request": 4304,
      "Snowy": 4305,
      "flapped": 4306,
      "sparkled": 4307,
      "Sk": 4308,
      "streng": 4309,
      "boo": 4310,
      "steel": 4311,
      "bumped": 4312,
      "yawned": 4313,
      "equ": 4314,
      "scold": 4315,
      "myself": 4316,
      "exerc": 4317,
      "shrugged": 4318,
      "theart": 4319,
      "strength": 4320,
      "paid": 4321,
      "Lucky": 4322,
      "pigs": 4323,
      "scratch": 4324,
      "tracks": 4325,
      "danger": 4326,
      "impressed": 4327,
      "prayed": 4328,
      "crossed": 4329,
      "upstairs": 4330,
      "bouncing": 4331,
      "squeezed": 4332,
      "breathe": 4333,
      "Elly": 4334,
      "badly": 4335,
      "expect": 4336,
      "rabbits": 4337,
      "minute": 4338,
      "snugg": 4339,
      "..": 4340,
      "leather": 4341,
      "rhy": 4342,
      "nation": 4343,
      "Finny": 4344,
      "ix": 4345,
      "choo": 4346,
      "tide": 4347,
      "Finn": 4348,
      "tour": 4349,
      "stud": 4350,
      "flood": 4351,
      "recommend": 4352,
      "sweetheart": 4353,
      "bears": 4354,
      "espec": 4355,
      "claws": 4356,
      "heat": 4357,
      "history": 4358,
      "content": 4359,
      "strawberries": 4360,
      "settle": 4361,
      "vacation": 4362,
      "sandcastle": 4363,
      "network": 4364,
      "Coco": 4365,
      "observe": 4366,
      "explored": 4367,
      "thm": 4368,
      "yawn": 4369,
      "believed": 4370,
      "horses": 4371,
      "neighb": 4372,
      "ially": 4373,
      "checked": 4374,
      "mare": 4375,
      "inking": 4376,
      "placed": 4377,
      "Fox": 4378,
      "bling": 4379,
      "cheek": 4380,
      "Tilly": 4381,
      "ffic": 4382,
      "Not": 4383,
      "Harry": 4384,
      "offer": 4385,
      "easily": 4386,
      "First": 4387,
      "spots": 4388,
      "blueberry": 4389,
      "energy": 4390,
      "mission": 4391,
      "safar": 4392,
      "ween": 4393,
      "between": 4394,
      "nightmare": 4395,
      "imagination": 4396,
      "Penny": 4397,
      "Pa": 4398,
      "daisy": 4399,
      "waving": 4400,
      "soak": 4401,
      "twisted": 4402,
      "counter": 4403,
      "writing": 4404,
      "baking": 4405,
      "safari": 4406,
      "blowing": 4407,
      "quake": 4408,
      "prunes": 4409,
      "rhythm": 4410,
      "stomach": 4411,
      "insisted": 4412,
      "muscle": 4413,
      "Owl": 4414,
      "entered": 4415,
      "beauty": 4416,
      "bother": 4417,
      "palm": 4418,
      "poppy": 4419,
      "ipment": 4420,
      "hills": 4421,
      "equipment": 4422,
      "burned": 4423,
      "ddy": 4424,
      "especially": 4425,
      "cky": 4426,
      "sir": 4427,
      "ingred": 4428,
      "nobody": 4429,
      "ingredient": 4430,
      "ignored": 4431,
      "earthquake": 4432,
      "xygen": 4433,
      "Mill": 4434,
      "calls": 4435,
      "exper": 4436,
      "hood": 4437,
      "tug": 4438,
      "Whenever": 4439,
      "afternoon": 4440,
      "Maria": 4441,
      "lemonade": 4442,
      "Goodbye": 4443,
      "learnt": 4444,
      "hearts": 4445,
      "Zara": 4446,
      "increase": 4447,
      "napped": 4448,
      "Ju": 4449,
      "tremble": 4450,
      "mailman": 4451,
      "whistled": 4452,
      "shopkeeper": 4453,
      "backpack": 4454,
      "yucky": 4455,
      "lemons": 4456,
      "beans": 4457,
      "sting": 4458,
      "moves": 4459,
      "introduce": 4460,
      "strike": 4461,
      "Wed": 4462,
      "Wednes": 4463,
      "Mitten": 4464,
      "ris": 4465,
      "include": 4466,
      "floated": 4467,
      "Froggy": 4468,
      "folded": 4469,
      "traffic": 4470,
      "Sandy": 4471,
      "Sharing": 4472,
      "Mittens": 4473,
      "price": 4474,
      "planned": 4475,
      "Squeaky": 4476,
      "rested": 4477,
      "Sur": 4478,
      "racing": 4479,
      "wisdom": 4480,
      "luck": 4481,
      "Bounce": 4482,
      "Sh": 4483,
      "pitch": 4484,
      "wags": 4485,
      "excla": 4486,
      "following": 4487,
      "mama": 4488,
      "slap": 4489,
      "lip": 4490,
      "below": 4491,
      "heel": 4492,
      "encourage": 4493,
      "served": 4494,
      "weight": 4495,
      "gling": 4496,
      "Gre": 4497,
      "buried": 4498,
      "exclaimed": 4499,
      "prints": 4500,
      "crow": 4501,
      "pted": 4502,
      "follows": 4503,
      "ingredients": 4504,
      "recognize": 4505,
      "allow": 4506,
      "Millie": 4507,
      "candles": 4508,
      "Remember": 4509,
      "Kate": 4510,
      "bey": 4511,
      "urge": 4512,
      "Wednesday": 4513,
      "ler": 4514,
      "ptain": 4515,
      "apart": 4516,
      "bang": 4517,
      "oper": 4518,
      "marbles": 4519,
      "teaching": 4520,
      "growled": 4521,
      "chore": 4522,
      "hopes": 4523,
      "Baby": 4524,
      "closely": 4525,
      "James": 4526,
      "tch": 4527,
      "Follow": 4528,
      "May": 4529,
      "zigzag": 4530,
      "pulling": 4531,
      "chewed": 4532,
      "bouncy": 4533,
      "digg": 4534,
      "further": 4535,
      "dresses": 4536,
      "riage": 4537,
      "winning": 4538,
      "digging": 4539,
      "Pinky": 4540,
      "solved": 4541,
      "gie": 4542,
      "Pip": 4543,
      "ifi": 4544,
      "twis": 4545,
      "puzzles": 4546,
      "shouting": 4547,
      "cery": 4548,
      "grocery": 4549,
      "attent": 4550,
      "peanuts": 4551,
      "chores": 4552,
      "twisty": 4553,
      "worms": 4554,
      "scrat": 4555,
      "dressed": 4556,
      "Papa": 4557,
      "Tony": 4558,
      "operation": 4559,
      "snail": 4560,
      "hon": 4561,
      "deeper": 4562,
      "exercise": 4563,
      "Bluey": 4564,
      "spike": 4565,
      "acorns": 4566,
      "izes": 4567,
      "planted": 4568,
      "oxygen": 4569,
      "wink": 4570,
      "Fifi": 4571,
      "Ruby": 4572,
      "lecture": 4573,
      "attention": 4574,
      "quite": 4575,
      "marriage": 4576,
      "underground": 4577,
      "Everything": 4578,
      "creatures": 4579,
      "argu": 4580,
      "washing": 4581,
      "vanished": 4582,
      "struggle": 4583,
      "hurting": 4584,
      "invitation": 4585,
      "gifts": 4586,
      "licks": 4587,
      "petal": 4588,
      "snuggled": 4589,
      "quietly": 4590,
      "awe": 4591,
      "jazz": 4592,
      "disagree": 4593,
      "blood": 4594,
      "elephants": 4595,
      "fallen": 4596,
      "Liz": 4597,
      "release": 4598,
      "reci": 4599,
      "dried": 4600,
      "sizes": 4601,
      "poss": 4602,
      "landscape": 4603,
      "neighbour": 4604,
      "Tues": 4605,
      "mice": 4606,
      "exit": 4607,
      "sprink": 4608,
      "sailing": 4609,
      "eagerly": 4610,
      "appreci": 4611,
      "Sunday": 4612,
      "paused": 4613,
      "ooped": 4614,
      "Ste": 4615,
      "Surpr": 4616,
      "vanish": 4617,
      "worth": 4618,
      "Uncle": 4619,
      "style": 4620,
      "aking": 4621,
      "shined": 4622,
      "ashion": 4623,
      "reaches": 4624,
      "mm": 4625,
      "Wigg": 4626,
      "atta": 4627,
      "bricks": 4628,
      "kisses": 4629,
      "Sm": 4630,
      "plays": 4631,
      "ideas": 4632,
      "balan": 4633,
      "wob": 4634,
      "fireworks": 4635,
      "seeing": 4636,
      "ucked": 4637,
      "Yum": 4638,
      "tomatoes": 4639,
      "accepted": 4640,
      "stra": 4641,
      "blink": 4642,
      "fashion": 4643,
      "memory": 4644,
      "ups": 4645,
      "married": 4646,
      "nce": 4647,
      "muddy": 4648,
      "Each": 4649,
      "reeze": 4650,
      "Watch": 4651,
      "resp": 4652,
      "Rosie": 4653,
      "wagging": 4654,
      "Clara": 4655,
      "wandered": 4656,
      "captain": 4657,
      "manage": 4658,
      "gloves": 4659,
      "rang": 4660,
      "receive": 4661,
      "famil": 4662,
      "God": 4663,
      "during": 4664,
      "lick": 4665,
      "petals": 4666,
      "zipped": 4667,
      "Mo": 4668,
      "watered": 4669,
      "pillows": 4670,
      "Spark": 4671,
      "couraged": 4672,
      "meow": 4673,
      "brings": 4674,
      "Ke": 4675,
      "Che": 4676,
      "pinched": 4677,
      "destroyed": 4678,
      "printer": 4679,
      "Wiggly": 4680,
      "shot": 4681,
      "bones": 4682,
      "Tuesday": 4683,
      "hadn": 4684,
      "catching": 4685,
      "treasures": 4686,
      "hers": 4687,
      "worse": 4688,
      "beam": 4689,
      "hi": 4690,
      "aches": 4691,
      "scattered": 4692,
      "hits": 4693,
      "sorts": 4694,
      "toes": 4695,
      "memories": 4696,
      "xu": 4697,
      "Kat": 4698,
      "velvet": 4699,
      "scolded": 4700,
      "oranges": 4701,
      "seats": 4702,
      "snapped": 4703,
      "signs": 4704,
      "sits": 4705,
      "Mor": 4706,
      "bby": 4707,
      "gazed": 4708,
      "pears": 4709,
      "raised": 4710,
      "acked": 4711,
      "pies": 4712,
      "sliding": 4713,
      "Wally": 4714,
      "rect": 4715,
      "climbs": 4716,
      "baked": 4717,
      "llen": 4718,
      "easier": 4719,
      "King": 4720,
      "skills": 4721,
      "Beep": 4722,
      "luxu": 4723,
      "ccer": 4724,
      "omed": 4725,
      "forgotten": 4726,
      "twirled": 4727,
      "blankets": 4728,
      "possible": 4729,
      "difference": 4730,
      "zero": 4731,
      "sterday": 4732,
      "cutting": 4733,
      "wed": 4734,
      "Ha": 4735,
      "golden": 4736,
      "Surprise": 4737,
      "kitty": 4738,
      "olive": 4739,
      "season": 4740,
      "Maggie": 4741,
      "soccer": 4742,
      "ys": 4743,
      "bru": 4744,
      "beha": 4745,
      "nowhere": 4746,
      "lung": 4747,
      "emer": 4748,
      "Slow": 4749,
      "dared": 4750,
      "Tuna": 4751,
      "Zo": 4752,
      "bites": 4753,
      "Out": 4754,
      "celebrated": 4755,
      "Hop": 4756,
      "west": 4757,
      "sorting": 4758,
      "sters": 4759,
      "straight": 4760,
      "ah": 4761,
      "padd": 4762,
      "unlocked": 4763,
      "Moral": 4764,
      "bleed": 4765,
      "comed": 4766,
      "nies": 4767,
      "welcomed": 4768,
      "collected": 4769,
      "stitch": 4770,
      "visited": 4771,
      "spoons": 4772,
      "Ok": 4773,
      "jogging": 4774,
      "warn": 4775,
      "medi": 4776,
      "tore": 4777,
      "mediately": 4778,
      "isn": 4779,
      "buzz": 4780,
      "trave": 4781,
      "recei": 4782,
      "since": 4783,
      "winner": 4784,
      "ruin": 4785,
      "fortun": 4786,
      "bab": 4787,
      "prepar": 4788,
      "ipping": 4789,
      "attached": 4790,
      "luxury": 4791,
      "bur": 4792,
      "Suzy": 4793,
      "Din": 4794,
      "imple": 4795,
      "weeping": 4796,
      "Meow": 4797,
      "marching": 4798,
      "simple": 4799,
      "Both": 4800,
      "shouldn": 4801,
      "guessed": 4802,
      "stuffed": 4803,
      "selling": 4804,
      "Smith": 4805,
      "pets": 4806,
      "created": 4807,
      "vic": 4808,
      "urged": 4809,
      "waist": 4810,
      "bowed": 4811,
      "floating": 4812,
      "Someone": 4813,
      "kingdom": 4814,
      "olives": 4815,
      "Always": 4816,
      "kicking": 4817,
      "printed": 4818,
      "punished": 4819,
      "Dr": 4820,
      "muscles": 4821,
      "understanding": 4822,
      "beds": 4823,
      "melted": 4824,
      "uses": 4825,
      "jewels": 4826,
      "lets": 4827,
      "perfor": 4828,
      "lined": 4829,
      "grin": 4830,
      "measured": 4831,
      "collection": 4832,
      "slice": 4833,
      "grant": 4834,
      "omeday": 4835,
      "fortunately": 4836,
      "acted": 4837,
      "offic": 4838,
      "trapped": 4839,
      "gers": 4840,
      "encouraged": 4841,
      "resu": 4842,
      "iers": 4843,
      "waffles": 4844,
      "received": 4845,
      "sip": 4846,
      "ents": 4847,
      "patterns": 4848,
      "mouths": 4849,
      "hest": 4850,
      "kins": 4851,
      "peaches": 4852,
      "breeze": 4853,
      "chy": 4854,
      "six": 4855,
      "someday": 4856,
      "Stay": 4857,
      "potatoes": 4858,
      "soldiers": 4859,
      "result": 4860,
      "Toto": 4861,
      "presents": 4862,
      "experience": 4863,
      "pupil": 4864,
      "drinks": 4865,
      "none": 4866,
      "ging": 4867,
      "flap": 4868,
      "Rocky": 4869,
      "surround": 4870,
      "appro": 4871,
      "drinking": 4872,
      "voices": 4873,
      "breaking": 4874,
      "relaxed": 4875,
      "victory": 4876,
      "tongue": 4877,
      "twink": 4878,
      "bak": 4879,
      "fetch": 4880,
      "hurried": 4881,
      "paints": 4882,
      "stumes": 4883,
      "whistling": 4884,
      "costumes": 4885,
      "mentioned": 4886,
      "Chicky": 4887,
      "disagreed": 4888,
      "begged": 4889,
      "Pepper": 4890,
      "teasing": 4891,
      "pearl": 4892,
      "flat": 4893,
      "lips": 4894,
      "permission": 4895,
      "Like": 4896,
      "skipping": 4897,
      "highest": 4898,
      "sorted": 4899,
      "cus": 4900,
      "works": 4901,
      "Its": 4902,
      "sniff": 4903,
      "fishing": 4904,
      "ringing": 4905,
      "aded": 4906,
      "watches": 4907,
      "tonight": 4908,
      "opin": 4909,
      "shadows": 4910,
      "Sky": 4911,
      "Milly": 4912,
      "crun": 4913,
      "immediately": 4914,
      "perfectly": 4915,
      "suppo": 4916,
      "ruck": 4917,
      "icing": 4918,
      "warmth": 4919,
      "remained": 4920,
      "herbs": 4921,
      "obey": 4922,
      "Our": 4923,
      "mbers": 4924,
      "sett": 4925,
      "sneak": 4926,
      "emergen": 4927,
      "napping": 4928,
      "Dino": 4929,
      "kneeled": 4930,
      "\",": 4931,
      "lines": 4932,
      "colours": 4933,
      "contest": 4934,
      "cartoons": 4935,
      "east": 4936,
      "headed": 4937,
      "ago": 4938,
      "stamps": 4939,
      "Bug": 4940,
      "sidewalk": 4941,
      "Pr": 4942,
      "girls": 4943,
      "rust": 4944,
      "roots": 4945,
      "supposed": 4946,
      "cones": 4947,
      "mixing": 4948,
      "members": 4949,
      "Zigzag": 4950,
      "For": 4951,
      "Dav": 4952,
      "Frank": 4953,
      "decorations": 4954,
      "Keep": 4955,
      "Ex": 4956,
      "melting": 4957,
      "Friend": 4958,
      "Rab": 4959,
      "lily": 4960,
      "sid": 4961,
      "setting": 4962,
      "laid": 4963,
      "Really": 4964,
      "utter": 4965,
      "Ye": 4966,
      "Thanks": 4967,
      "wiggle": 4968,
      "studied": 4969,
      "succeeded": 4970,
      "strangers": 4971,
      "fields": 4972,
      "ding": 4973,
      "shock": 4974,
      "twigs": 4975,
      "theirs": 4976,
      "!\",": 4977,
      "ordered": 4978,
      "stirring": 4979,
      "However": 4980,
      "screams": 4981,
      "Something": 4982,
      "stealing": 4983,
      "alright": 4984,
      "moments": 4985,
      "threat": 4986,
      "mister": 4987,
      "Rabbit": 4988,
      "David": 4989,
      "bravely": 4990,
      "Steve": 4991,
      "!'": 4992,
      "playtime": 4993,
      "esca": 4994,
      "tucked": 4995,
      "invest": 4996,
      "scratched": 4997,
      "waits": 4998,
      "ripped": 4999,
      "burning": 5000,
      "Lizzy": 5001,
      "investig": 5002,
      "inch": 5003,
      "matched": 5004,
      "ishes": 5005,
      "bridges": 5006,
      "settled": 5007,
      "otion": 5008,
      "Rac": 5009,
      "officer": 5010,
      "Je": 5011,
      "bun": 5012,
      "exture": 5013,
      "Hope": 5014,
      "lap": 5015,
      "emergency": 5016,
      "texture": 5017,
      "achie": 5018,
      "turning": 5019,
      "Unfortunately": 5020,
      "keys": 5021,
      "trembling": 5022,
      "nails": 5023,
      "Aunt": 5024,
      "nie": 5025,
      "sore": 5026,
      "izard": 5027,
      "piles": 5028,
      "muffins": 5029,
      "decis": 5030,
      "escaped": 5031,
      "Ray": 5032,
      "silence": 5033,
      "babies": 5034,
      "investigate": 5035,
      "admir": 5036,
      "sisters": 5037,
      "appreciate": 5038,
      "Star": 5039,
      "Slowly": 5040,
      "dads": 5041,
      "slapped": 5042,
      "chewing": 5043,
      "Katie": 5044,
      "area": 5045,
      "answers": 5046,
      "importance": 5047,
      "safety": 5048,
      "pupp": 5049,
      "broom": 5050,
      "Put": 5051,
      "wizard": 5052,
      "iggy": 5053,
      "owned": 5054,
      "Abig": 5055,
      "Moo": 5056,
      "beat": 5057,
      "sparkle": 5058,
      "soared": 5059,
      "touching": 5060,
      "quack": 5061,
      "antly": 5062,
      "amaze": 5063,
      "sings": 5064,
      "Abigail": 5065,
      "dam": 5066,
      "chip": 5067,
      "Those": 5068,
      "amazement": 5069,
      "Squ": 5070,
      "brushes": 5071,
      "ms": 5072,
      "soaked": 5073,
      "hesit": 5074,
      "twin": 5075,
      "revealed": 5076,
      "writ": 5077,
      "keeps": 5078,
      "Leave": 5079,
      "Mmm": 5080,
      "Rachel": 5081,
      "foods": 5082,
      "dinosaurs": 5083,
      "recorded": 5084,
      "rides": 5085,
      "curled": 5086,
      "tickle": 5087,
      "spaceship": 5088,
      "trips": 5089,
      "glowed": 5090,
      "rr": 5091,
      "ached": 5092,
      "vor": 5093,
      "beamed": 5094,
      "ppers": 5095,
      "shopping": 5096,
      "Zoe": 5097,
      "hated": 5098,
      "direct": 5099,
      "eats": 5100,
      "wooden": 5101,
      "Spl": 5102,
      "Joy": 5103,
      "studying": 5104,
      "praised": 5105,
      "crawling": 5106,
      "thri": 5107,
      "ruler": 5108,
      "ids": 5109,
      "bringing": 5110,
      "anna": 5111,
      "marks": 5112,
      "mittens": 5113,
      "includ": 5114,
      "downstairs": 5115,
      "shooting": 5116,
      "dot": 5117,
      "tastes": 5118,
      "cuddled": 5119,
      "collecting": 5120,
      "Hold": 5121,
      "sprinkles": 5122,
      "families": 5123,
      "fut": 5124,
      "monsters": 5125,
      "ef": 5126,
      "measuring": 5127,
      "Ma": 5128,
      "ib": 5129,
      "challen": 5130,
      "future": 5131,
      "'.": 5132,
      "Jess": 5133,
      "irts": 5134,
      "ising": 5135,
      "fy": 5136,
      "approached": 5137,
      "crunchy": 5138,
      "ladybug": 5139,
      "Yummy": 5140,
      "leader": 5141,
      "tails": 5142,
      "disturbed": 5143,
      "boom": 5144,
      "remembers": 5145,
      "bleeding": 5146,
      "nicer": 5147,
      "isten": 5148,
      "sneaky": 5149,
      "scaring": 5150,
      "peel": 5151,
      "Sad": 5152,
      "Splash": 5153,
      "vi": 5154,
      "snowball": 5155,
      "Behind": 5156,
      "neighborhood": 5157,
      "grey": 5158,
      "Jam": 5159,
      "motion": 5160,
      "firemen": 5161,
      "Listen": 5162,
      "weighed": 5163,
      "apologized": 5164,
      "gained": 5165,
      "tickets": 5166,
      "loose": 5167,
      "woof": 5168,
      "naps": 5169,
      "youth": 5170,
      "pride": 5171,
      "worker": 5172,
      "behaved": 5173,
      "strings": 5174,
      "Pippa": 5175,
      "Vel": 5176,
      "recognized": 5177,
      "Nan": 5178,
      "sire": 5179,
      "siren": 5180,
      "crashed": 5181,
      "poking": 5182,
      "fied": 5183,
      "wonders": 5184,
      "En": 5185,
      "tricked": 5186,
      "Velvet": 5187,
      "Quick": 5188,
      "Robby": 5189,
      "wanting": 5190,
      "prepared": 5191,
      "struck": 5192,
      "draws": 5193,
      ".'": 5194,
      "seesaw": 5195,
      "zooming": 5196,
      "opinion": 5197,
      "scooped": 5198,
      "By": 5199,
      "acting": 5200,
      "grinned": 5201,
      "yelling": 5202,
      "poems": 5203,
      "happiest": 5204,
      "rubbing": 5205,
      "doggy": 5206,
      "Get": 5207,
      "respons": 5208,
      "zes": 5209,
      "chef": 5210,
      "sneaked": 5211,
      "Achoo": 5212,
      "fer": 5213,
      "Quack": 5214,
      "lier": 5215,
      "zen": 5216,
      "anytime": 5217,
      "knelt": 5218,
      "decorated": 5219,
      "pedals": 5220,
      "sides": 5221,
      "bunnies": 5222,
      "Jan": 5223,
      "ena": 5224,
      "agreement": 5225,
      "secrets": 5226,
      "tallest": 5227,
      "horns": 5228,
      "rescu": 5229,
      "During": 5230,
      "sen": 5231,
      "De": 5232,
      "Time": 5233,
      "decides": 5234,
      "bank": 5235,
      "ided": 5236,
      "Stitch": 5237,
      "challenge": 5238,
      "tugged": 5239,
      "goodnight": 5240,
      "Spr": 5241,
      "Bree": 5242,
      "Exc": 5243,
      "slim": 5244,
      "sparkling": 5245,
      "chirped": 5246,
      "osity": 5247,
      "Bad": 5248,
      "Thom": 5249,
      "precious": 5250,
      "repeated": 5251,
      "indy": 5252,
      "Ava": 5253,
      "pause": 5254,
      "Friends": 5255,
      "Being": 5256,
      "Green": 5257,
      "uggling": 5258,
      "loaded": 5259,
      "claps": 5260,
      "Birdie": 5261,
      "contain": 5262,
      "ourselves": 5263,
      "rs": 5264,
      "Bouncy": 5265,
      "snowballs": 5266,
      "eight": 5267,
      "Dare": 5268,
      "giraffes": 5269,
      "frozen": 5270,
      "balancing": 5271,
      "kindly": 5272,
      "Gogo": 5273,
      "united": 5274,
      "alien": 5275,
      "Sn": 5276,
      "spending": 5277,
      "writes": 5278,
      "comp": 5279,
      "Thomas": 5280,
      "Po": 5281,
      "hissed": 5282,
      "flavor": 5283,
      "frosting": 5284,
      "Two": 5285,
      "struggled": 5286,
      "buzzing": 5287,
      "rele": 5288,
      "admiring": 5289,
      "sweeties": 5290,
      "slimy": 5291,
      "brushed": 5292,
      "Water": 5293,
      "Mi": 5294,
      "polished": 5295,
      "bloomed": 5296,
      "comfy": 5297,
      "Olly": 5298,
      "Fish": 5299,
      "rings": 5300,
      "loving": 5301,
      "Mouse": 5302,
      "powers": 5303,
      "staying": 5304,
      "Julie": 5305,
      "honk": 5306,
      "folding": 5307,
      "thrilled": 5308,
      "Zero": 5309,
      "beside": 5310,
      "rocking": 5311,
      "Kids": 5312,
      "Cla": 5313,
      "Mir": 5314,
      "Wis": 5315,
      "pockets": 5316,
      "earlier": 5317,
      "Wisdom": 5318,
      "seems": 5319,
      "yesterday": 5320,
      "machines": 5321,
      "traveled": 5322,
      "ities": 5323,
      "sew": 5324,
      "spraying": 5325,
      "radishes": 5326,
      "zookeeper": 5327,
      "hugging": 5328,
      "cracked": 5329,
      "opening": 5330,
      "tim": 5331,
      "pebbles": 5332,
      "gaze": 5333,
      "surrounded": 5334,
      "removed": 5335,
      "demanded": 5336,
      "curiosity": 5337,
      "paintings": 5338,
      "Spring": 5339,
      "hardly": 5340,
      "pots": 5341,
      "Beth": 5342,
      "petted": 5343,
      "Day": 5344,
      "catches": 5345,
      "circus": 5346,
      "stripes": 5347,
      "Abby": 5348,
      "matching": 5349,
      "crumb": 5350,
      "cub": 5351,
      "urry": 5352,
      "deser": 5353,
      "Jamie": 5354,
      "splashes": 5355,
      "cin": 5356,
      "Lou": 5357,
      "aster": 5358,
      "ric": 5359,
      "toss": 5360,
      "stare": 5361,
      "Fl": 5362,
      "belly": 5363,
      "stron": 5364,
      "Everyday": 5365,
      "whatever": 5366,
      "apologize": 5367,
      "sled": 5368,
      "tles": 5369,
      "ribbons": 5370,
      "comforted": 5371,
      "stored": 5372,
      "roads": 5373,
      "rocked": 5374,
      "expected": 5375,
      "struggling": 5376,
      "chases": 5377,
      "decision": 5378,
      "steep": 5379,
      "lied": 5380,
      "protected": 5381,
      "Mon": 5382,
      "beard": 5383,
      "neighbors": 5384,
      "granted": 5385,
      "loe": 5386,
      "diving": 5387,
      "smiley": 5388,
      "purred": 5389,
      "heroes": 5390,
      "Nina": 5391,
      "eagle": 5392,
      "stro": 5393,
      "sadness": 5394,
      "organizing": 5395,
      "disco": 5396,
      "safer": 5397,
      "dipped": 5398,
      "goals": 5399,
      "argued": 5400,
      "sunlight": 5401,
      "pastels": 5402,
      "Take": 5403,
      "discovery": 5404,
      "villag": 5405,
      "dragons": 5406,
      "peered": 5407,
      "buildings": 5408,
      "Chloe": 5409,
      "parties": 5410,
      "buckets": 5411,
      "cuts": 5412,
      "shirts": 5413,
      "wedding": 5414,
      "smar": 5415,
      "flutter": 5416,
      "polishing": 5417,
      "Josh": 5418,
      "fas": 5419,
      "refu": 5420,
      "planets": 5421,
      "crabs": 5422,
      "Ear": 5423,
      "sausages": 5424,
      "Hippy": 5425,
      "released": 5426,
      "Silly": 5427,
      "ads": 5428,
      "wiggled": 5429,
      "clearing": 5430,
      "vies": 5431,
      "teased": 5432,
      "arguing": 5433,
      "roaring": 5434,
      "bottles": 5435,
      "dragged": 5436,
      "gathering": 5437,
      "actu": 5438,
      "Kay": 5439,
      "ley": 5440,
      "movies": 5441,
      "Run": 5442,
      "teaches": 5443,
      "limes": 5444,
      "cough": 5445,
      "Bop": 5446,
      "joyed": 5447,
      "spiders": 5448,
      "Prin": 5449,
      "actually": 5450,
      "continue": 5451,
      "sighs": 5452,
      "Hanna": 5453,
      "overjoyed": 5454,
      "caut": 5455,
      "cuddle": 5456,
      "cubes": 5457,
      "smallest": 5458,
      "soaring": 5459,
      "situ": 5460,
      "drives": 5461,
      "prov": 5462,
      "sparkles": 5463,
      "grandmother": 5464,
      "proper": 5465,
      "Catty": 5466,
      "rol": 5467,
      "mane": 5468,
      "fascin": 5469,
      "Flo": 5470,
      "peppers": 5471,
      "pouring": 5472,
      "pretends": 5473,
      "wondering": 5474,
      "shivered": 5475,
      "stretching": 5476,
      "len": 5477,
      "quarreling": 5478,
      "dusty": 5479,
      "Jump": 5480,
      "ippy": 5481,
      "weeks": 5482,
      "wherever": 5483,
      "villagers": 5484,
      "darker": 5485,
      "company": 5486,
      "Enjoy": 5487,
      "onwards": 5488,
      "weed": 5489,
      "laying": 5490,
      "iggling": 5491,
      "tiest": 5492,
      "tions": 5493,
      "youn": 5494,
      "prettiest": 5495,
      "Oli": 5496,
      "realize": 5497,
      "Lena": 5498,
      "penguins": 5499,
      "knights": 5500,
      "bedtime": 5501,
      "Earth": 5502,
      "control": 5503,
      "othing": 5504,
      "”.": 5505,
      "completed": 5506,
      "instruc": 5507,
      "flags": 5508,
      "stom": 5509,
      "actions": 5510,
      "shrug": 5511,
      "Chew": 5512,
      "Love": 5513,
      "dolph": 5514,
      "kites": 5515,
      "patience": 5516,
      "conf": 5517,
      "Anne": 5518,
      "responsible": 5519,
      "learns": 5520,
      "die": 5521,
      "Squirrel": 5522,
      "playroom": 5523,
      "gotten": 5524,
      "packing": 5525,
      "Adam": 5526,
      "Try": 5527,
      "destination": 5528,
      "sobb": 5529,
      "reply": 5530,
      "inda": 5531,
      "fault": 5532,
      "Uh": 5533,
      "mountains": 5534,
      "scrubbed": 5535,
      "wires": 5536,
      "applauded": 5537,
      "Blink": 5538,
      "wins": 5539,
      "fears": 5540,
      "wrist": 5541,
      "crept": 5542,
      "rac": 5543,
      "satis": 5544,
      "pencils": 5545,
      "wound": 5546,
      "Want": 5547,
      "sticking": 5548,
      "Brownie": 5549,
      "baker": 5550,
      "third": 5551,
      "visiting": 5552,
      "ibb": 5553,
      "aren": 5554,
      "uct": 5555,
      "peas": 5556,
      "awake": 5557,
      "reminder": 5558,
      "joking": 5559,
      "Mira": 5560,
      "ky": 5561,
      "Princess": 5562,
      "parked": 5563,
      "healed": 5564,
      "hitting": 5565,
      "Luck": 5566,
      "screaming": 5567,
      "staring": 5568,
      "icorn": 5569,
      "unicorn": 5570,
      "Hannah": 5571,
      "acti": 5572,
      "begin": 5573,
      "copy": 5574,
      "helmets": 5575,
      "Luckily": 5576,
      "bie": 5577,
      "creation": 5578,
      "crumbs": 5579,
      "shelves": 5580,
      "wasted": 5581,
      "chips": 5582,
      "towels": 5583,
      "nets": 5584,
      "masks": 5585,
      "items": 5586,
      "chat": 5587,
      "Claire": 5588,
      "agrees": 5589,
      "Hoot": 5590,
      "died": 5591,
      "lollipops": 5592,
      "uddles": 5593,
      "guns": 5594,
      "glitter": 5595,
      "ica": 5596,
      "firefight": 5597,
      "Jilly": 5598,
      "logs": 5599,
      "stole": 5600,
      "arrive": 5601,
      "scales": 5602,
      "weren": 5603,
      "tune": 5604,
      "Dot": 5605,
      "ilo": 5606,
      "Ah": 5607,
      "Ally": 5608,
      "perched": 5609,
      "nect": 5610,
      "candies": 5611,
      "whose": 5612,
      "seven": 5613,
      "instructions": 5614,
      "snakes": 5615,
      "practicing": 5616,
      "achieve": 5617,
      "wid": 5618,
      "pumpkins": 5619,
      "Foxy": 5620,
      "Ball": 5621,
      "batteries": 5622,
      "chirping": 5623,
      "Roar": 5624,
      "protecting": 5625,
      "activ": 5626,
      "patiently": 5627,
      "exact": 5628,
      "shoulders": 5629,
      "Tree": 5630,
      "blows": 5631,
      "crowd": 5632,
      "El": 5633,
      "faced": 5634,
      "promises": 5635,
      "Cra": 5636,
      "airplane": 5637,
      "videos": 5638,
      "ners": 5639,
      "yum": 5640,
      "examined": 5641,
      "jamas": 5642,
      "cans": 5643,
      "accompl": 5644,
      "roses": 5645,
      "Duck": 5646,
      "project": 5647,
      "Ja": 5648,
      "tasks": 5649,
      "aws": 5650,
      "Susan": 5651,
      "Great": 5652,
      "beads": 5653,
      "Cuddles": 5654,
      "bowls": 5655,
      "rubs": 5656,
      "guest": 5657,
      "listens": 5658,
      "Jeff": 5659,
      "scoop": 5660,
      "remote": 5661,
      "requested": 5662,
      "dies": 5663,
      "ining": 5664,
      "dent": 5665,
      "anta": 5666,
      "rolls": 5667,
      "dolphins": 5668,
      "bunch": 5669,
      "photos": 5670,
      "ops": 5671,
      "improved": 5672,
      "cheering": 5673,
      "brand": 5674,
      "reaching": 5675,
      "Santa": 5676,
      "stumble": 5677,
      "robb": 5678,
      "Dizzy": 5679,
      "hunt": 5680,
      "Fine": 5681,
      "workers": 5682,
      "Luke": 5683,
      "filling": 5684,
      "timer": 5685,
      "stern": 5686,
      "leaning": 5687,
      "Jessie": 5688,
      "adult": 5689,
      "eath": 5690,
      "replaced": 5691,
      "neither": 5692,
      "tum": 5693,
      "confli": 5694,
      "misses": 5695,
      "twirl": 5696,
      "curtains": 5697,
      "passing": 5698,
      "rainbows": 5699,
      "uctantly": 5700,
      "irm": 5701,
      "beneath": 5702,
      "complaining": 5703,
      "puppet": 5704,
      "conflict": 5705,
      "pajamas": 5706,
      "patted": 5707,
      "outdoors": 5708,
      "sweat": 5709,
      "refuse": 5710,
      "Juli": 5711,
      "fact": 5712,
      "closes": 5713,
      "Henny": 5714,
      "Trust": 5715,
      "drums": 5716,
      "Nothing": 5717,
      "hoo": 5718,
      "balanced": 5719,
      "angled": 5720,
      "introduc": 5721,
      "quacked": 5722,
      "rescued": 5723,
      "athy": 5724,
      "awesome": 5725,
      "Fire": 5726,
      "...": 5727,
      "neath": 5728,
      "rip": 5729,
      "guys": 5730,
      "Days": 5731,
      "ker": 5732,
      "effort": 5733,
      "observed": 5734,
      "trig": 5735,
      "rule": 5736,
      "cautious": 5737,
      "exactly": 5738,
      "Oops": 5739,
      "becoming": 5740,
      "pastries": 5741,
      "Rover": 5742,
      "policeman": 5743,
      "Linda": 5744,
      "doctors": 5745,
      "rockets": 5746,
      "Milo": 5747,
      "mies": 5748,
      "insist": 5749,
      "blooming": 5750,
      "fairies": 5751,
      "Whistle": 5752,
      "Vroom": 5753,
      "tractor": 5754,
      "farther": 5755,
      "Gina": 5756,
      "teamwork": 5757,
      "zie": 5758,
      "Jenna": 5759,
      "included": 5760,
      "remembering": 5761,
      "curly": 5762,
      "Jacob": 5763,
      "fascinated": 5764,
      "Sha": 5765,
      "helpers": 5766,
      "truly": 5767,
      "sights": 5768,
      "slam": 5769,
      "Only": 5770,
      "firm": 5771,
      "wobbled": 5772,
      "onge": 5773,
      "recording": 5774,
      "paddle": 5775,
      "caused": 5776,
      "prayer": 5777,
      "Rain": 5778,
      "Jon": 5779,
      "loading": 5780,
      "cost": 5781,
      "traded": 5782,
      "starfish": 5783,
      "thro": 5784,
      "inviting": 5785,
      "neighbourhood": 5786,
      "pointy": 5787,
      "Ske": 5788,
      "throat": 5789,
      "Skelly": 5790,
      "usually": 5791,
      "sponge": 5792,
      "supplies": 5793,
      "situation": 5794,
      "prett": 5795,
      "valued": 5796,
      "everyday": 5797,
      "adding": 5798,
      "dots": 5799,
      "bare": 5800,
      "steady": 5801,
      "bows": 5802,
      "reluctantly": 5803,
      "ornaments": 5804,
      "minerals": 5805,
      "prettier": 5806,
      "ledge": 5807,
      "seas": 5808,
      "shaped": 5809,
      "stays": 5810,
      "Betsy": 5811,
      "tables": 5812,
      "Dara": 5813,
      "desert": 5814,
      "anger": 5815,
      "snowmen": 5816,
      "faraway": 5817,
      "Dee": 5818,
      "Whee": 5819,
      "thorn": 5820,
      "Lion": 5821,
      "strum": 5822,
      "solut": 5823,
      "swooped": 5824,
      "forks": 5825,
      "Twink": 5826,
      "pans": 5827,
      "badge": 5828,
      "colored": 5829,
      "winked": 5830,
      "Suzie": 5831,
      "sneezing": 5832,
      "Ash": 5833,
      "confident": 5834,
      "insects": 5835,
      "sobbed": 5836,
      "growling": 5837,
      "noses": 5838,
      "Dodo": 5839,
      "itchy": 5840,
      "homework": 5841,
      "scarves": 5842,
      "windy": 5843,
      "superheroes": 5844,
      "smarter": 5845,
      "ora": 5846,
      "yourselves": 5847,
      "ido": 5848,
      "Ziggy": 5849,
      "Nana": 5850,
      "Paws": 5851,
      "lett": 5852,
      "kicks": 5853,
      "librarian": 5854,
      "Bang": 5855,
      "Mart": 5856,
      "gems": 5857,
      "jackets": 5858,
      "underneath": 5859,
      "Wink": 5860,
      "master": 5861,
      "knowledge": 5862,
      "untie": 5863,
      "Snap": 5864,
      "ropes": 5865,
      "...\"": 5866,
      "Yeah": 5867,
      "princesses": 5868,
      "vin": 5869,
      "Gu": 5870,
      "Fido": 5871,
      "warnings": 5872,
      "cot": 5873,
      "giggling": 5874,
      "reads": 5875,
      "squares": 5876,
      "Skip": 5877,
      "rusty": 5878,
      "zzed": 5879,
      "orted": 5880,
      "swallow": 5881,
      "biting": 5882,
      "Sadly": 5883,
      "Yesterday": 5884,
      "deal": 5885,
      "Ew": 5886,
      "aut": 5887,
      "seag": 5888,
      "clowns": 5889,
      "younger": 5890,
      "seagull": 5891,
      "delivered": 5892,
      "Fe": 5893,
      "wears": 5894,
      "Pu": 5895,
      "nine": 5896,
      "Twinkle": 5897,
      "pite": 5898,
      "complained": 5899,
      "buzzed": 5900,
      "iv": 5901,
      "rance": 5902,
      "Shh": 5903,
      "Jessica": 5904,
      "Buggy": 5905,
      "paddled": 5906,
      "onions": 5907,
      "bumpy": 5908,
      "piggy": 5909,
      "dived": 5910,
      "direction": 5911,
      "startled": 5912,
      "Jones": 5913,
      "froze": 5914,
      "surface": 5915,
      "Cara": 5916,
      "Cindy": 5917,
      "tangled": 5918,
      "Cathy": 5919,
      "Ba": 5920,
      "vowed": 5921,
      "covers": 5922,
      "napkins": 5923,
      "tickled": 5924,
      "squeal": 5925,
      "itches": 5926,
      "cous": 5927,
      "ripe": 5928,
      "Near": 5929,
      "yells": 5930,
      "swims": 5931,
      "satisfied": 5932,
      "knocks": 5933,
      "Mine": 5934,
      "fits": 5935,
      "freshed": 5936,
      "wow": 5937,
      "refreshed": 5938,
      "Tara": 5939,
      "signed": 5940,
      "marked": 5941,
      "arrows": 5942,
      "Kayla": 5943,
      "speaking": 5944,
      "lettuce": 5945,
      "wipes": 5946,
      "choices": 5947,
      "praying": 5948,
      "Sof": 5949,
      "ented": 5950,
      "seeker": 5951,
      "guessing": 5952,
      "fab": 5953,
      "hides": 5954,
      "creating": 5955,
      "introduced": 5956,
      "slower": 5957,
      "Nice": 5958,
      "singer": 5959,
      "ref": 5960,
      "behaving": 5961,
      "Oliver": 5962,
      "joked": 5963,
      "explorers": 5964,
      "provided": 5965,
      "Julia": 5966,
      "toaster": 5967,
      "uggles": 5968,
      "Excuse": 5969,
      "Mat": 5970,
      "discovering": 5971,
      "rainy": 5972,
      "bars": 5973,
      "paying": 5974,
      "written": 5975,
      "Fu": 5976,
      "mushrooms": 5977,
      "magnets": 5978,
      "knees": 5979,
      "Mic": 5980,
      "hider": 5981,
      "wandering": 5982,
      "images": 5983,
      "Rolly": 5984,
      "ese": 5985,
      "ences": 5986,
      "barely": 5987,
      "Grumpy": 5988,
      "restored": 5989,
      "leading": 5990,
      "stung": 5991,
      "sequ": 5992,
      "?\",": 5993,
      "Snuggles": 5994,
      "Copper": 5995,
      "Mikey": 5996,
      "Matt": 5997,
      "chuck": 5998,
      "ranger": 5999,
      "bravery": 6000,
      "competition": 6001,
      "properly": 6002,
      "Laser": 6003,
      "wishing": 6004,
      "ventured": 6005,
      "however": 6006,
      "deserve": 6007,
      "gears": 6008,
      "salty": 6009,
      "blocking": 6010,
      "dances": 6011,
      "matters": 6012,
      "vines": 6013,
      "darkness": 6014,
      "stem": 6015,
      "chefs": 6016,
      "consequ": 6017,
      "cobwebs": 6018,
      "ruining": 6019,
      "scur": 6020,
      "fabric": 6021,
      "avocados": 6022,
      "basement": 6023,
      "hum": 6024,
      "entire": 6025,
      "lower": 6026,
      "least": 6027,
      "performed": 6028,
      "Jay": 6029,
      "scratches": 6030,
      "Bark": 6031,
      "Pup": 6032,
      "losing": 6033,
      "heavier": 6034,
      "bbie": 6035,
      "amb": 6036,
      "Without": 6037,
      "mints": 6038,
      "twirling": 6039,
      "wraps": 6040,
      "scurried": 6041,
      "haust": 6042,
      "reflect": 6043,
      "suits": 6044,
      "rever": 6045,
      "swords": 6046,
      "sunflowers": 6047,
      "flake": 6048,
      "snat": 6049,
      "flames": 6050,
      "necklaces": 6051,
      "si": 6052,
      "solution": 6053,
      "rotting": 6054,
      "relief": 6055,
      "tricky": 6056,
      "silent": 6057,
      "jobs": 6058,
      "sewed": 6059,
      "Bloom": 6060,
      "Peanut": 6061,
      "burst": 6062,
      "stain": 6063,
      "lighter": 6064,
      "exhaust": 6065,
      "thud": 6066,
      "consequences": 6067,
      "Larry": 6068,
      "pins": 6069,
      "unpacked": 6070,
      "Sophia": 6071,
      "races": 6072,
      "partic": 6073,
      "accomplish": 6074,
      "bumps": 6075,
      "Fro": 6076,
      "noy": 6077,
      "tires": 6078,
      "rious": 6079,
      "purr": 6080,
      "decorating": 6081,
      "Doctor": 6082,
      "backed": 6083,
      "click": 6084,
      "dentist": 6085,
      "Up": 6086,
      "ene": 6087,
      "lifting": 6088,
      "annoy": 6089,
      "iar": 6090,
      "isies": 6091,
      "crackers": 6092,
      "ouch": 6093,
      "needles": 6094,
      "Lizz": 6095,
      "cautiously": 6096,
      "growls": 6097,
      "ties": 6098,
      "hesitated": 6099,
      "Woo": 6100,
      "familiar": 6101,
      "bodies": 6102,
      "daisies": 6103,
      "triangles": 6104,
      "Lizzie": 6105,
      "rains": 6106,
      "grabbing": 6107,
      "mater": 6108,
      "buying": 6109,
      "figured": 6110,
      "grows": 6111,
      "stomped": 6112,
      "sweets": 6113,
      "material": 6114,
      "bly": 6115,
      "cheeks": 6116,
      "bakery": 6117,
      "interested": 6118,
      "June": 6119,
      "groups": 6120,
      "Ant": 6121,
      "swans": 6122,
      "Ele": 6123,
      "Sim": 6124,
      "suffering": 6125,
      "lungs": 6126,
      "owners": 6127,
      "repa": 6128,
      "ded": 6129,
      "freed": 6130,
      "chuckled": 6131,
      "ters": 6132,
      "?'": 6133,
      "source": 6134,
      "swept": 6135,
      "twinkling": 6136,
      "exhausted": 6137,
      "Frosty": 6138,
      "darling": 6139,
      "worries": 6140,
      "tapped": 6141,
      "feast": 6142,
      "tunnels": 6143,
      "Very": 6144,
      "repaired": 6145,
      "yan": 6146,
      "activities": 6147,
      "nectar": 6148,
      "indro": 6149,
      "Mel": 6150,
      "reason": 6151,
      "plent": 6152,
      "Moon": 6153,
      "mailed": 6154,
      "changing": 6155,
      "Pam": 6156,
      "kings": 6157,
      "Que": 6158,
      "dip": 6159,
      "entrance": 6160,
      "completely": 6161,
      "pecked": 6162,
      "sense": 6163,
      "fuzzy": 6164,
      "cuddly": 6165,
      "nests": 6166,
      "particular": 6167,
      "raindro": 6168,
      "meals": 6169,
      "stool": 6170,
      "waiter": 6171,
      "plenty": 6172,
      "forehead": 6173,
      "Rollie": 6174,
      "Birthday": 6175,
      "peeking": 6176,
      "Nick": 6177,
      "rist": 6178,
      "Bigg": 6179,
      "slammed": 6180,
      "ks": 6181,
      "players": 6182,
      "Stell": 6183,
      "printing": 6184,
      "month": 6185,
      "Stella": 6186,
      "handful": 6187,
      "forgets": 6188,
      "feeding": 6189,
      "gle": 6190,
      "rum": 6191,
      "budge": 6192,
      "scra": 6193,
      "Chris": 6194,
      "passports": 6195,
      "Other": 6196,
      "Cu": 6197,
      "lon": 6198,
      "Queen": 6199,
      "genie": 6200,
      "impossible": 6201,
      "talks": 6202,
      "baths": 6203,
      "determination": 6204,
      "films": 6205,
      "spikes": 6206,
      "designed": 6207,
      "wobble": 6208,
      "opp": 6209,
      "counts": 6210,
      "squish": 6211,
      "buses": 6212,
      "spreading": 6213,
      "honked": 6214,
      "blings": 6215,
      "chop": 6216,
      "steer": 6217,
      "stolen": 6218,
      "Christ": 6219,
      "wiping": 6220,
      "separated": 6221,
      "Hurry": 6222,
      "Magic": 6223,
      "Sleep": 6224,
      "lamb": 6225,
      "ranny": 6226,
      "fires": 6227,
      "siblings": 6228,
      "Biggie": 6229,
      "behavi": 6230,
      "irl": 6231,
      "ply": 6232,
      "Eleph": 6233,
      "hops": 6234,
      "thest": 6235,
      "Abbie": 6236,
      "fever": 6237,
      "sewing": 6238,
      "Missy": 6239,
      "Robert": 6240,
      "iss": 6241,
      "liqu": 6242,
      "celebration": 6243,
      "pose": 6244,
      "Lau": 6245,
      "twinkle": 6246,
      "Robo": 6247,
      "toed": 6248,
      "backward": 6249,
      "Robbie": 6250,
      "camping": 6251,
      "Maya": 6252,
      "Izzy": 6253,
      "bi": 6254,
      "Rock": 6255,
      "snatched": 6256,
      "serving": 6257,
      "Stre": 6258,
      "immer": 6259,
      "creams": 6260,
      "squealed": 6261,
      "shrinking": 6262,
      "cash": 6263,
      "moo": 6264,
      "celebrating": 6265,
      "twice": 6266,
      "sway": 6267,
      "hog": 6268,
      "dollhouse": 6269,
      "Lia": 6270,
      "hus": 6271,
      "kittens": 6272,
      "plain": 6273,
      "shops": 6274,
      "touches": 6275,
      "Honey": 6276,
      "spat": 6277,
      "mate": 6278,
      "avoid": 6279,
      "Stretch": 6280,
      "Toot": 6281,
      "pancakes": 6282,
      "paths": 6283,
      "students": 6284,
      "dropping": 6285,
      "twisting": 6286,
      "calmed": 6287,
      "tram": 6288,
      "ul": 6289,
      "untied": 6290,
      "wrapping": 6291,
      "stroked": 6292,
      "cers": 6293,
      "peck": 6294,
      "liquid": 6295,
      "rotten": 6296,
      "iles": 6297,
      "somebody": 6298,
      "Laura": 6299,
      "Which": 6300,
      "seaweed": 6301,
      "Sparky": 6302,
      "ingo": 6303,
      "Fuzzy": 6304,
      "cent": 6305,
      "astron": 6306,
      "playhouse": 6307,
      "screws": 6308,
      "Farm": 6309,
      "haw": 6310,
      "loops": 6311,
      "bracelets": 6312,
      "wakes": 6313,
      "itched": 6314,
      "igning": 6315,
      "shoo": 6316,
      "puppies": 6317,
      "astronaut": 6318,
      "thrown": 6319,
      "planning": 6320,
      "Rudy": 6321,
      "Elephant": 6322,
      "aimed": 6323,
      "ends": 6324,
      "skunk": 6325,
      "bras": 6326,
      "firefly": 6327,
      "dancers": 6328,
      "rewarded": 6329,
      "chie": 6330,
      "belts": 6331,
      "sparks": 6332,
      "poster": 6333,
      "pennies": 6334,
      "lifts": 6335,
      "beginning": 6336,
      "Christmas": 6337,
      "husband": 6338,
      "Isn": 6339,
      "sale": 6340,
      "trampol": 6341,
      "reflection": 6342,
      "objects": 6343,
      "directions": 6344,
      "lia": 6345,
      "endy": 6346,
      "Karen": 6347,
      "increased": 6348,
      "tempt": 6349,
      "rising": 6350,
      "Ryan": 6351,
      "clues": 6352,
      "scor": 6353,
      "leads": 6354,
      "cousin": 6355,
      "ading": 6356,
      "blocked": 6357,
      "trampoline": 6358,
      "gar": 6359,
      "forgetting": 6360,
      "--": 6361,
      "Open": 6362,
      "bits": 6363,
      "angle": 6364,
      "trigued": 6365,
      "pouted": 6366,
      "Martha": 6367,
      "itor": 6368,
      "storekeeper": 6369,
      "borrowed": 6370,
      "mesmer": 6371,
      "hedgehog": 6372,
      "countryside": 6373,
      "instrum": 6374,
      "dama": 6375,
      "lings": 6376,
      "damage": 6377,
      "Along": 6378,
      "frowning": 6379,
      "beyond": 6380,
      "zebras": 6381,
      "snowflake": 6382,
      "vehicles": 6383,
      "presses": 6384,
      "whispers": 6385,
      "ivity": 6386,
      "ount": 6387,
      "forts": 6388,
      "marker": 6389,
      "Mabel": 6390,
      "maker": 6391,
      "Emmy": 6392,
      "flapping": 6393,
      "cert": 6394,
      "Does": 6395,
      "warmer": 6396,
      "ammy": 6397,
      "regretted": 6398,
      "slips": 6399,
      "Snowman": 6400,
      "glued": 6401,
      "tiptoed": 6402,
      "Farmer": 6403,
      "Granny": 6404,
      "everybody": 6405,
      "bells": 6406,
      "yelp": 6407,
      "cushions": 6408,
      "colder": 6409,
      "creations": 6410,
      "smelling": 6411,
      "Show": 6412,
      "hearing": 6413,
      "earn": 6414,
      "iam": 6415,
      "tying": 6416,
      "fins": 6417,
      "Crab": 6418,
      "airy": 6419,
      "streets": 6420,
      "Tia": 6421,
      "os": 6422,
      "Ne": 6423,
      "farthest": 6424,
      "Univer": 6425,
      "spins": 6426,
      "iti": 6427,
      "Beaky": 6428,
      "strongest": 6429,
      "Ribb": 6430,
      "creativity": 6431,
      "Ron": 6432,
      "talent": 6433,
      "ortun": 6434,
      "Make": 6435,
      "sank": 6436,
      "lending": 6437,
      "Ribbit": 6438,
      "Spir": 6439,
      "including": 6440,
      "Too": 6441,
      "puff": 6442,
      "dollars": 6443,
      "cashier": 6444,
      "Never": 6445,
      "stopping": 6446,
      "health": 6447,
      "Ana": 6448,
      "spells": 6449,
      "wobbly": 6450,
      "sniffs": 6451,
      "Say": 6452,
      "trembled": 6453,
      "guests": 6454,
      "Spirit": 6455,
      "hael": 6456,
      "single": 6457,
      "pon": 6458,
      "indeed": 6459,
      "raincoat": 6460,
      "bbled": 6461,
      "Win": 6462,
      "recommended": 6463,
      "Afterwards": 6464,
      "surprising": 6465,
      "accomplishment": 6466,
      "Simon": 6467,
      "stands": 6468,
      "hopeful": 6469,
      "tweet": 6470,
      "pered": 6471,
      "supported": 6472,
      "suffered": 6473,
      "gross": 6474,
      "seasons": 6475,
      "drivers": 6476,
      "vanilla": 6477,
      "Barky": 6478,
      "forgiving": 6479,
      "slowed": 6480,
      "Titi": 6481,
      "plans": 6482,
      "Michael": 6483,
      "Holly": 6484,
      "mance": 6485,
      "suitcase": 6486,
      "artist": 6487,
      "performance": 6488,
      "fle": 6489,
      "raindrops": 6490,
      "flavors": 6491,
      "turtles": 6492,
      "labels": 6493,
      "racco": 6494,
      "coloured": 6495,
      "ware": 6496,
      "delivery": 6497,
      "Bones": 6498,
      "Nobody": 6499,
      "pops": 6500,
      "ility": 6501,
      "pours": 6502,
      "willing": 6503,
      "Patch": 6504,
      "guy": 6505,
      "Janie": 6506,
      "Kit": 6507,
      "hadow": 6508,
      "Guess": 6509,
      "drawn": 6510,
      "Hor": 6511,
      "geese": 6512,
      "corners": 6513,
      "Mad": 6514,
      "Turt": 6515,
      "recipe": 6516,
      "hallway": 6517,
      "charac": 6518,
      "wept": 6519,
      "surfboard": 6520,
      "widened": 6521,
      "Zee": 6522,
      "queens": 6523,
      "squeak": 6524,
      "itude": 6525,
      "watering": 6526,
      "sailboat": 6527,
      "imagining": 6528,
      "grip": 6529,
      "Mother": 6530,
      "raging": 6531,
      "robber": 6532,
      "nif": 6533,
      "seconds": 6534,
      "preparing": 6535,
      "sending": 6536,
      "minded": 6537,
      "talented": 6538,
      "grocer": 6539,
      "Cow": 6540,
      "aside": 6541,
      "softer": 6542,
      "Share": 6543,
      "tipped": 6544,
      "outfit": 6545,
      "unsure": 6546,
      "delivering": 6547,
      "sailors": 6548,
      "Baa": 6549,
      "notes": 6550,
      "treehouse": 6551,
      "knots": 6552,
      "inst": 6553,
      "horiz": 6554,
      "echo": 6555,
      "Find": 6556,
      "Poor": 6557,
      "zipping": 6558,
      "pleasure": 6559,
      "figures": 6560,
      "blinking": 6561,
      "horizon": 6562,
      "angels": 6563,
      "Momma": 6564,
      "achieved": 6565,
      "Ar": 6566,
      "rumble": 6567,
      "lle": 6568,
      "curiously": 6569,
      "visitor": 6570,
      "acle": 6571,
      "hotter": 6572,
      "pupils": 6573,
      "Ral": 6574,
      "backwards": 6575,
      "burrow": 6576,
      "Since": 6577,
      "pigeons": 6578,
      "prove": 6579,
      "bandages": 6580,
      "symbols": 6581,
      "tummies": 6582,
      "Ralph": 6583,
      "ives": 6584,
      "Fight": 6585,
      "hour": 6586,
      "Toys": 6587,
      "robots": 6588,
      "tossed": 6589,
      "Zoey": 6590,
      "raccoon": 6591,
      "rather": 6592,
      "roars": 6593,
      "atur": 6594,
      "Wake": 6595,
      "Se": 6596,
      "Excited": 6597,
      "blown": 6598,
      "merma": 6599,
      "groceries": 6600,
      "Wise": 6601,
      "iding": 6602,
      "Marie": 6603,
      "among": 6604,
      "Jackie": 6605,
      "Lenny": 6606,
      "date": 6607,
      "nu": 6608,
      "afterwards": 6609,
      "!”.": 6610,
      "Wendy": 6611,
      "Abi": 6612,
      "Wor": 6613,
      "shovels": 6614,
      "merry": 6615,
      "overcome": 6616,
      "ments": 6617,
      "sped": 6618,
      "glee": 6619,
      "firefighters": 6620,
      "Rich": 6621,
      "issue": 6622,
      "Any": 6623,
      "heading": 6624,
      "reversed": 6625,
      "Des": 6626,
      "Davey": 6627,
      "slices": 6628,
      "swallowed": 6629,
      "flipped": 6630,
      "Fighting": 6631,
      "Am": 6632,
      "Willy": 6633,
      "squeezing": 6634,
      "disturbing": 6635,
      "scored": 6636,
      "Tweetie": 6637,
      "Bro": 6638,
      "Turtle": 6639,
      "Ra": 6640,
      "waking": 6641,
      "ades": 6642,
      "couraging": 6643,
      "item": 6644,
      "center": 6645,
      "intrigued": 6646,
      "Playing": 6647,
      "Ame": 6648,
      "encouraging": 6649,
      "hawk": 6650,
      "Roo": 6651,
      "dged": 6652,
      "squishy": 6653,
      "Yog": 6654,
      "chosen": 6655,
      "slipping": 6656,
      "University": 6657,
      "iley": 6658,
      "designs": 6659,
      "Shr": 6660,
      "markers": 6661,
      "screwdriver": 6662,
      "Mix": 6663,
      "gardener": 6664,
      "Jacky": 6665,
      "secure": 6666,
      "tigers": 6667,
      "Puppy": 6668,
      "crew": 6669,
      "rivers": 6670,
      "frowns": 6671,
      "couple": 6672,
      "respond": 6673,
      "fluttered": 6674,
      "ignoring": 6675,
      "lling": 6676,
      "sharks": 6677,
      "lent": 6678,
      "tighter": 6679,
      "jars": 6680,
      "tissue": 6681,
      "sprinkled": 6682,
      "firefighter": 6683,
      "assur": 6684,
      "ships": 6685,
      "giggles": 6686,
      "creamy": 6687,
      "firmly": 6688,
      "amed": 6689,
      "shown": 6690,
      "audi": 6691,
      "thorns": 6692,
      "ais": 6693,
      "Boys": 6694,
      "lies": 6695,
      "Judy": 6696,
      "performing": 6697,
      "Chewy": 6698,
      "audience": 6699,
      "crossing": 6700,
      "daring": 6701,
      "todd": 6702,
      "drawers": 6703,
      "til": 6704,
      "Todd": 6705,
      "gracefully": 6706,
      "cloudy": 6707,
      "Kip": 6708,
      "addie": 6709,
      "stroke": 6710,
      "yielded": 6711,
      "ev": 6712,
      "pedaled": 6713,
      "ilder": 6714,
      "mixture": 6715,
      "sports": 6716,
      "haircuts": 6717,
      "Ali": 6718,
      "Maddie": 6719,
      "respected": 6720,
      "ponies": 6721,
      "Bally": 6722,
      "sim": 6723,
      "ias": 6724,
      "ory": 6725,
      "crowns": 6726,
      "Yet": 6727,
      "nervously": 6728,
      "express": 6729,
      "Jojo": 6730,
      "pays": 6731,
      "Dear": 6732,
      "wrink": 6733,
      "hangers": 6734,
      "tested": 6735,
      "ddie": 6736,
      "obeyed": 6737,
      "avy": 6738,
      "Sparkle": 6739,
      "surfing": 6740,
      "Sadie": 6741,
      "Mina": 6742,
      "drif": 6743,
      "Outside": 6744,
      "beehive": 6745,
      "sails": 6746,
      "Alright": 6747,
      "shady": 6748,
      "Man": 6749,
      "wisely": 6750,
      "bathing": 6751,
      "melons": 6752,
      "enthusias": 6753,
      "enthusiasm": 6754,
      "sever": 6755,
      "stitches": 6756,
      "magician": 6757,
      "Although": 6758,
      "neighbours": 6759,
      "rays": 6760,
      "darlings": 6761,
      "flip": 6762,
      "reminds": 6763,
      "surroundings": 6764,
      "rup": 6765,
      "foc": 6766,
      "temper": 6767,
      "thoughts": 6768,
      "iona": 6769,
      "fleas": 6770,
      "spits": 6771,
      "scooters": 6772,
      "paintbrush": 6773,
      "Samant": 6774,
      "Samantha": 6775,
      "fills": 6776,
      "lever": 6777,
      "ongrat": 6778,
      "Ange": 6779,
      "teams": 6780,
      "Fiona": 6781,
      "eted": 6782,
      "lessons": 6783,
      "sill": 6784,
      "Mixy": 6785,
      "cleaner": 6786,
      "lves": 6787,
      "amount": 6788,
      "10": 6789,
      "explo": 6790,
      "panicked": 6791,
      "mermaid": 6792,
      "forgiven": 6793,
      "ann": 6794,
      "longest": 6795,
      "Start": 6796,
      "oysters": 6797,
      "beloved": 6798,
      "Everybody": 6799,
      "hoops": 6800,
      "tock": 6801,
      "asing": 6802,
      "immering": 6803,
      "Mint": 6804,
      "solving": 6805,
      "fus": 6806,
      "rushing": 6807,
      "elf": 6808,
      "tasting": 6809,
      "certain": 6810,
      "oni": 6811,
      "magazines": 6812,
      "repeating": 6813,
      "ita": 6814,
      "Herb": 6815,
      "discussed": 6816,
      "licking": 6817,
      "Eddie": 6818,
      "sweetest": 6819,
      "wadd": 6820,
      "tubes": 6821,
      "sprang": 6822,
      "nightmares": 6823,
      "spoonful": 6824,
      "kill": 6825,
      "Yoga": 6826,
      "guide": 6827,
      "sweep": 6828,
      "understands": 6829,
      "Chess": 6830,
      "manners": 6831,
      "pad": 6832,
      "bully": 6833,
      "nood": 6834,
      "breathed": 6835,
      "nur": 6836,
      "compe": 6837,
      "sheets": 6838,
      "Amelia": 6839,
      "neare": 6840,
      "Pop": 6841,
      "onna": 6842,
      "footsteps": 6843,
      "Choo": 6844,
      "deed": 6845,
      "Back": 6846,
      "tered": 6847,
      "bulbs": 6848,
      "grassy": 6849,
      "Meg": 6850,
      "wiggly": 6851,
      "testing": 6852,
      "speeding": 6853,
      "Fairy": 6854,
      "Unt": 6855,
      "spies": 6856,
      "weekend": 6857,
      "imb": 6858,
      "More": 6859,
      "lan": 6860,
      "ilda": 6861,
      "Micro": 6862,
      "polar": 6863,
      "Until": 6864,
      "?!\"": 6865,
      "joining": 6866,
      "ounced": 6867,
      "focused": 6868,
      "Smo": 6869,
      "Bess": 6870,
      "braver": 6871,
      "mesmerized": 6872,
      "hesitant": 6873,
      "Ruff": 6874,
      "perate": 6875,
      "Deal": 6876,
      "awn": 6877,
      "cutter": 6878,
      "evil": 6879,
      "Raz": 6880,
      "scattering": 6881,
      "changes": 6882,
      "Despite": 6883,
      "worn": 6884,
      "greeted": 6885,
      "camel": 6886,
      "materials": 6887,
      "nuzz": 6888,
      "peacefully": 6889,
      "Mean": 6890,
      "cept": 6891,
      "spice": 6892,
      "dred": 6893,
      "Goodnight": 6894,
      "Judge": 6895,
      "Gary": 6896,
      "Shadow": 6897,
      "ashed": 6898,
      "gonna": 6899,
      "spills": 6900,
      "ongratul": 6901,
      "politely": 6902,
      "terrified": 6903,
      "bicycles": 6904,
      "healing": 6905,
      "asers": 6906,
      "Ruth": 6907,
      "miles": 6908,
      "knives": 6909,
      "Spin": 6910,
      "aeroplanes": 6911,
      "burying": 6912,
      "ppies": 6913,
      "scarecrow": 6914,
      "seals": 6915,
      "sation": 6916,
      "gazing": 6917,
      "Razor": 6918,
      "blast": 6919,
      "worrying": 6920,
      "Ice": 6921,
      "Navy": 6922,
      "amboo": 6923,
      "loses": 6924,
      "stacked": 6925,
      "Eat": 6926,
      "puzzled": 6927,
      "ows": 6928,
      "travelled": 6929,
      "donkey": 6930,
      "dump": 6931,
      "soaking": 6932,
      "baskets": 6933,
      "force": 6934,
      "antic": 6935,
      "dripping": 6936,
      "Hug": 6937,
      "locks": 6938,
      "Arr": 6939,
      "pinching": 6940,
      "tar": 6941,
      "rats": 6942,
      "temperature": 6943,
      "formed": 6944,
      "clue": 6945,
      "reassur": 6946,
      "ipes": 6947,
      "Another": 6948,
      "Mindy": 6949,
      "recor": 6950,
      "oosh": 6951,
      "believing": 6952,
      "humans": 6953,
      "Should": 6954,
      "Dina": 6955,
      "sisted": 6956,
      "punishment": 6957,
      "Climb": 6958,
      "banged": 6959,
      "swimmer": 6960,
      "Meanwhile": 6961,
      "covering": 6962,
      "Stan": 6963,
      "ipper": 6964,
      "sandy": 6965,
      "Prince": 6966,
      "Sofia": 6967,
      "toddler": 6968,
      "crashing": 6969,
      "Still": 6970,
      "een": 6971,
      "hundred": 6972,
      "orrow": 6973,
      "relaxing": 6974,
      "backpacks": 6975,
      "Eliz": 6976,
      "Eliza": 6977,
      "joins": 6978,
      "beeped": 6979,
      "dressing": 6980,
      "Use": 6981,
      "snowflakes": 6982,
      "resisted": 6983,
      "quarreled": 6984,
      "bage": 6985,
      "rows": 6986,
      "Bri": 6987,
      "correct": 6988,
      "delayed": 6989,
      "Maddy": 6990,
      "potion": 6991,
      "Ria": 6992,
      "arran": 6993,
      "encouragement": 6994,
      "toward": 6995,
      "'.\"": 6996,
      "purpose": 6997,
      "Tig": 6998,
      "py": 6999,
      "ramp": 7000,
      "twinkled": 7001,
      "cheers": 7002,
      "Jonny": 7003,
      "scraped": 7004,
      "hil": 7005,
      "benches": 7006,
      "languages": 7007,
      "permitted": 7008,
      "months": 7009,
      "Maisy": 7010,
      "wounds": 7011,
      "bamboo": 7012,
      "risks": 7013,
      "freedom": 7014,
      "Eva": 7015,
      "La": 7016,
      "rier": 7017,
      "Shelly": 7018,
      "Blinky": 7019,
      "faded": 7020,
      "poppies": 7021,
      "annoyed": 7022,
      "orders": 7023,
      "adults": 7024,
      "Loop": 7025,
      "sniffing": 7026,
      "noodles": 7027,
      "abby": 7028,
      "nodding": 7029,
      "shmall": 7030,
      "Flick": 7031,
      "Tri": 7032,
      "handsome": 7033,
      "tearing": 7034,
      "cells": 7035,
      "Pick": 7036,
      "flown": 7037,
      "floats": 7038,
      "burnt": 7039,
      "opinions": 7040,
      "pand": 7041,
      "cca": 7042,
      "ease": 7043,
      "sou": 7044,
      "Tomorrow": 7045,
      "Bon": 7046,
      "pleaded": 7047,
      "damaged": 7048,
      "drifted": 7049,
      "within": 7050,
      "pea": 7051,
      "ientist": 7052,
      "slither": 7053,
      "Ring": 7054,
      "Megan": 7055,
      "height": 7056,
      "sneezes": 7057,
      "bothering": 7058,
      "Gerry": 7059,
      "Muff": 7060,
      "blu": 7061,
      "instruments": 7062,
      "hiss": 7063,
      "Close": 7064,
      "Ricky": 7065,
      "ition": 7066,
      "treated": 7067,
      "Dani": 7068,
      "lipstick": 7069,
      "Fishy": 7070,
      "Cari": 7071,
      "Frankie": 7072,
      "Nut": 7073,
      "wasting": 7074,
      "birdhouse": 7075,
      "pound": 7076,
      "brushing": 7077,
      "seller": 7078,
      "results": 7079,
      "scientist": 7080,
      "flight": 7081,
      "handing": 7082,
      "destroying": 7083,
      "sweaty": 7084,
      "Zippy": 7085,
      "dreamt": 7086,
      "Pret": 7087,
      "talents": 7088,
      "Play": 7089,
      "behavior": 7090,
      "characters": 7091,
      "explains": 7092,
      "oops": 7093,
      "onward": 7094,
      "ousy": 7095,
      "mischie": 7096,
      "files": 7097,
      "Fly": 7098,
      "Tre": 7099,
      "bravest": 7100,
      "Whoever": 7101,
      "decisions": 7102,
      "Shrink": 7103,
      "Mousy": 7104,
      "snuck": 7105,
      "sternly": 7106,
      "switched": 7107,
      "apologised": 7108,
      "Sc": 7109,
      "tuck": 7110,
      "puck": 7111,
      "squeaked": 7112,
      "reminding": 7113,
      "engines": 7114,
      "swirl": 7115,
      "Boom": 7116,
      "bitten": 7117,
      "postman": 7118,
      "minds": 7119,
      "breathing": 7120,
      "mosquitoes": 7121,
      "builder": 7122,
      "Nurse": 7123,
      "scares": 7124,
      "peeled": 7125,
      "Tw": 7126,
      "manag": 7127,
      "Ca": 7128,
      "grandparents": 7129,
      "quie": 7130,
      "purrs": 7131,
      "Curious": 7132,
      "displayed": 7133,
      "planting": 7134,
      "Katy": 7135,
      "smashed": 7136,
      "singers": 7137,
      "scam": 7138,
      "neatly": 7139,
      "tilted": 7140,
      "shines": 7141,
      "Muffin": 7142,
      "rustling": 7143,
      "shor": 7144,
      "gap": 7145,
      "bellies": 7146,
      "Louise": 7147,
      "via": 7148,
      "yelped": 7149,
      "zooms": 7150,
      "Patty": 7151,
      "combed": 7152,
      "marshmall": 7153,
      "failed": 7154,
      "focus": 7155,
      "coloring": 7156,
      "cracks": 7157,
      "business": 7158,
      "charge": 7159,
      "nasty": 7160,
      "squaw": 7161,
      "Rita": 7162,
      "Sweet": 7163,
      "despite": 7164,
      "Speed": 7165,
      "spapers": 7166,
      "edges": 7167,
      "Nancy": 7168,
      "Min": 7169,
      "wider": 7170,
      "pandas": 7171,
      "plug": 7172,
      "spy": 7173,
      "Kelly": 7174,
      "doorway": 7175,
      "sweaters": 7176,
      "nib": 7177,
      "action": 7178,
      "robbers": 7179,
      "conne": 7180,
      "tage": 7181,
      "echoed": 7182,
      "tops": 7183,
      "curl": 7184,
      "gobbled": 7185,
      "taped": 7186,
      "cafe": 7187,
      "backs": 7188,
      "connected": 7189,
      "flaps": 7190,
      "bably": 7191,
      "Er": 7192,
      "goo": 7193,
      "gras": 7194,
      "scolds": 7195,
      "student": 7196,
      "Jax": 7197,
      "Tell": 7198,
      "cond": 7199,
      "plucked": 7200,
      "probably": 7201,
      "magnif": 7202,
      "Con": 7203,
      "encounter": 7204,
      "rior": 7205,
      "newspapers": 7206,
      "warrior": 7207,
      "shinier": 7208,
      "crawls": 7209,
      "Bubba": 7210,
      "Wooly": 7211,
      "several": 7212,
      "Elle": 7213,
      "assm": 7214,
      "stetho": 7215,
      "whistles": 7216,
      "Sl": 7217,
      "plot": 7218,
      "Butter": 7219,
      "swap": 7220,
      "mood": 7221,
      "cares": 7222,
      "waterfall": 7223,
      "gues": 7224,
      "gesture": 7225,
      "quieter": 7226,
      "Ty": 7227,
      "Taking": 7228,
      "Kevin": 7229,
      "cottage": 7230,
      "simply": 7231,
      "aint": 7232,
      "rescuing": 7233,
      "swo": 7234,
      "swimsuit": 7235,
      "Phil": 7236,
      "bothered": 7237,
      "shorter": 7238,
      "swollen": 7239,
      "doorbell": 7240,
      "snaps": 7241,
      "astronauts": 7242,
      "accidents": 7243,
      "grandson": 7244,
      "trusting": 7245,
      "lor": 7246,
      "phones": 7247,
      "belle": 7248,
      "unpacking": 7249,
      "Right": 7250,
      "prayers": 7251,
      "ssss": 7252,
      "dresser": 7253,
      "stalk": 7254,
      "Elsa": 7255,
      "causing": 7256,
      "ibi": 7257,
      "stethoscope": 7258,
      "elbow": 7259,
      "runner": 7260,
      "joyful": 7261,
      "pills": 7262,
      "throughout": 7263,
      "Sal": 7264,
      "munch": 7265,
      "flips": 7266,
      "Sa": 7267,
      "leapt": 7268,
      "Sir": 7269,
      "beaver": 7270,
      "Zipper": 7271,
      "Vi": 7272,
      "Arrr": 7273,
      "Sis": 7274,
      "lowered": 7275,
      "Daniel": 7276,
      "goats": 7277,
      "Bumpy": 7278,
      "inches": 7279,
      "Flop": 7280,
      "Ot": 7281,
      "Startled": 7282,
      "waddled": 7283,
      "stepping": 7284,
      "explorer": 7285,
      "teachers": 7286,
      "Vivi": 7287,
      "dears": 7288,
      "envelopes": 7289,
      "knocking": 7290,
      "Grow": 7291,
      "anticip": 7292,
      "Becky": 7293,
      "rowed": 7294,
      "gasp": 7295,
      "cowboy": 7296,
      "efforts": 7297,
      "whim": 7298,
      "uniforms": 7299,
      "Ly": 7300,
      "Biggy": 7301,
      "Bibi": 7302,
      "aware": 7303,
      "grandchild": 7304,
      "ruff": 7305,
      "Jolly": 7306,
      "floors": 7307,
      "footprints": 7308,
      "wenty": 7309,
      "except": 7310,
      "glitt": 7311,
      "Joan": 7312,
      "appreciation": 7313,
      "nearly": 7314,
      "llas": 7315,
      "collap": 7316,
      "sets": 7317,
      "trot": 7318,
      "Pretty": 7319,
      "prick": 7320,
      "Seeing": 7321,
      "necks": 7322,
      "burns": 7323,
      "stamped": 7324,
      "Yawn": 7325,
      "Thunder": 7326,
      "checks": 7327,
      "fluttering": 7328,
      "posit": 7329,
      "statues": 7330,
      "Cro": 7331,
      "whoosh": 7332,
      "umbrellas": 7333,
      "engers": 7334,
      "Softy": 7335,
      "shrank": 7336,
      "sandcastles": 7337,
      ".'\"": 7338,
      "Truck": 7339,
      "finishing": 7340,
      "Care": 7341,
      "Jason": 7342,
      "Chick": 7343,
      "tran": 7344,
      "squir": 7345,
      "dodged": 7346,
      "bounces": 7347,
      "hunters": 7348,
      "weeds": 7349,
      "issa": 7350,
      "adds": 7351,
      "germs": 7352,
      "chocolates": 7353,
      "shall": 7354,
      "Gray": 7355,
      "aisle": 7356,
      "plugged": 7357,
      "aprons": 7358,
      "matey": 7359,
      "iscu": 7360,
      "passengers": 7361,
      "Missile": 7362,
      "demanding": 7363,
      "scratching": 7364,
      "sented": 7365,
      "minding": 7366,
      "Sup": 7367,
      "ashes": 7368,
      "becomes": 7369,
      "presented": 7370,
      "novels": 7371,
      "laptop": 7372,
      "address": 7373,
      "driveway": 7374,
      "meows": 7375,
      "Sw": 7376,
      "refresh": 7377,
      "Roger": 7378,
      "discussing": 7379,
      "nurses": 7380,
      "Mae": 7381,
      "killed": 7382,
      "cas": 7383,
      "attack": 7384,
      "toolbox": 7385,
      "lope": 7386,
      "vented": 7387,
      "friendships": 7388,
      "Bingo": 7389,
      "Lina": 7390,
      "closing": 7391,
      "twists": 7392,
      "slapping": 7393,
      "Snake": 7394,
      "sprays": 7395,
      "scampered": 7396,
      "Hmm": 7397,
      "ghosts": 7398,
      "models": 7399,
      "belongings": 7400,
      "springing": 7401,
      "supplied": 7402,
      "Gus": 7403,
      "invites": 7404,
      "anticipation": 7405,
      "ford": 7406,
      "newfound": 7407,
      "suggestion": 7408,
      "cotton": 7409,
      "Vicky": 7410,
      "forgives": 7411,
      "mommies": 7412,
      "massages": 7413,
      "aim": 7414,
      "grandfather": 7415,
      "Hallow": 7416,
      "humming": 7417,
      "Halloween": 7418,
      "Flutter": 7419,
      "stroll": 7420,
      "expecting": 7421,
      "snuggle": 7422,
      "lappy": 7423,
      "buckled": 7424,
      "responded": 7425,
      "Piggy": 7426,
      "cheated": 7427,
      "traveling": 7428,
      "battle": 7429,
      "invitations": 7430,
      "although": 7431,
      "ien": 7432,
      "Jet": 7433,
      "Grand": 7434,
      "omb": 7435,
      "duckling": 7436,
      "Freddie": 7437,
      "refreshing": 7438,
      "carries": 7439,
      "laces": 7440,
      "Zack": 7441,
      "twenty": 7442,
      "tricycle": 7443,
      "Caro": 7444,
      "Wolf": 7445,
      "Dotty": 7446,
      "haird": 7447,
      "Charlot": 7448,
      "Elsie": 7449,
      "Tru": 7450,
      "essa": 7451,
      "final": 7452,
      "clicked": 7453,
      "convin": 7454,
      "ats": 7455,
      "Light": 7456,
      "Te": 7457,
      "foxes": 7458,
      "Charlotte": 7459,
      "Terry": 7460,
      "designing": 7461,
      "insp": 7462,
      "marshmallows": 7463,
      "William": 7464,
      "jets": 7465,
      "mugs": 7466,
      "Angel": 7467,
      "Feli": 7468,
      "Pig": 7469,
      "oudest": 7470,
      "strips": 7471,
      "usty": 7472,
      "clip": 7473,
      "Book": 7474,
      "greet": 7475,
      "picnics": 7476,
      "travels": 7477,
      "osite": 7478,
      "Cir": 7479,
      "scoops": 7480,
      "coral": 7481,
      "Quacky": 7482,
      "defe": 7483,
      "consid": 7484,
      "tests": 7485,
      "aliens": 7486,
      "opposite": 7487,
      "Twist": 7488,
      "Eric": 7489,
      "Flappy": 7490,
      "connect": 7491,
      "Amanda": 7492,
      "questioned": 7493,
      "Brrr": 7494,
      "Tweety": 7495,
      "Nutty": 7496,
      "pant": 7497,
      "fights": 7498,
      "groan": 7499,
      "encountered": 7500,
      "Bun": 7501,
      "rout": 7502,
      "rely": 7503,
      "defin": 7504,
      "bless": 7505,
      "Monkey": 7506,
      "raising": 7507,
      "afford": 7508,
      "odd": 7509,
      "custo": 7510,
      "winners": 7511,
      "realizes": 7512,
      "Satur": 7513,
      "upside": 7514,
      "freezing": 7515,
      "calmly": 7516,
      "byes": 7517,
      "cupcakes": 7518,
      "flashed": 7519,
      "inter": 7520,
      "cock": 7521,
      "conver": 7522,
      "yawning": 7523,
      "buddy": 7524,
      "serv": 7525,
      "Freeze": 7526,
      "Step": 7527,
      "packages": 7528,
      "coach": 7529,
      "messes": 7530,
      "goodbyes": 7531,
      "itely": 7532,
      "cheat": 7533,
      "',": 7534,
      "Per": 7535,
      "ening": 7536,
      "Brian": 7537,
      "sacks": 7538,
      "weapons": 7539,
      "Swim": 7540,
      "chea": 7541,
      "crystals": 7542,
      "App": 7543,
      "Match": 7544,
      "Andre": 7545,
      "enem": 7546,
      "returning": 7547,
      "admiration": 7548,
      "enemies": 7549,
      "ching": 7550,
      "parted": 7551,
      "yumm": 7552,
      "born": 7553,
      "stomp": 7554,
      "cosy": 7555,
      "yummiest": 7556,
      "unable": 7557,
      "brightest": 7558,
      "sadder": 7559,
      "craft": 7560,
      "prevented": 7561,
      "respon": 7562,
      "Life": 7563,
      "Janey": 7564,
      "response": 7565,
      "Pur": 7566,
      "Yell": 7567,
      "sess": 7568,
      "dragonfly": 7569,
      "ream": 7570,
      "ugging": 7571,
      "journeys": 7572,
      "Cook": 7573,
      "Sil": 7574,
      "Jean": 7575,
      "garbage": 7576,
      "tment": 7577,
      "diamonds": 7578,
      "Auntie": 7579,
      "Saturday": 7580,
      "pout": 7581,
      "Joke": 7582,
      "Floppy": 7583,
      "astic": 7584,
      "whispering": 7585,
      "honking": 7586,
      "spices": 7587,
      "stall": 7588,
      "whoever": 7589,
      "bride": 7590,
      "erase": 7591,
      "stretches": 7592,
      "stuffing": 7593,
      "visitors": 7594,
      "Moppy": 7595,
      "Rebe": 7596,
      "awful": 7597,
      "automobiles": 7598,
      "weighs": 7599,
      "Amber": 7600,
      "Cic": 7601,
      "customer": 7602,
      "Cici": 7603,
      "sincere": 7604,
      "opportun": 7605,
      "definitely": 7606,
      "caps": 7607,
      "traps": 7608,
      "honesty": 7609,
      "Math": 7610,
      "awoke": 7611,
      "Gra": 7612,
      "Tippy": 7613,
      "bomb": 7614,
      "Jumpy": 7615,
      "playdate": 7616,
      "examining": 7617,
      "Pine": 7618,
      "washes": 7619,
      "reassured": 7620,
      "Tammy": 7621,
      "ya": 7622,
      "erk": 7623,
      "argum": 7624,
      "grily": 7625,
      "wiser": 7626,
      "beetles": 7627,
      "travelling": 7628,
      "weal": 7629,
      "grum": 7630,
      "poses": 7631,
      "tumbled": 7632,
      ",'": 7633,
      "bou": 7634,
      "loudest": 7635,
      "emma": 7636,
      "occas": 7637,
      "Hopper": 7638,
      "bouque": 7639,
      "Prom": 7640,
      "inspired": 7641,
      "scrub": 7642,
      "Sasha": 7643,
      "beanstalk": 7644,
      "offering": 7645,
      "correctly": 7646,
      "Gabby": 7647,
      "welcoming": 7648,
      "Grac": 7649,
      "congratul": 7650,
      "owns": 7651,
      "declar": 7652,
      "type": 7653,
      "Birds": 7654,
      "decoration": 7655,
      "hairdress": 7656,
      "Rebecca": 7657,
      "Jelly": 7658,
      "flowing": 7659,
      "active": 7660,
      "increasing": 7661,
      "whales": 7662,
      "Over": 7663,
      "Super": 7664,
      "Rat": 7665,
      "wrigg": 7666,
      "Olivia": 7667,
      "Gracie": 7668,
      "Jas": 7669,
      "Helping": 7670,
      "Rufus": 7671,
      "recorder": 7672,
      "Cloud": 7673,
      "Im": 7674,
      "cleared": 7675,
      "Ashley": 7676,
      "nuzzled": 7677,
      "athan": 7678,
      "campfire": 7679,
      "declared": 7680,
      "Tyler": 7681,
      "beaks": 7682,
      "thump": 7683,
      "leap": 7684,
      "custom": 7685,
      "rewards": 7686,
      "warmly": 7687,
      "cowboys": 7688,
      "Animal": 7689,
      "comforting": 7690,
      "experien": 7691,
      "ots": 7692,
      "dollar": 7693,
      "prizes": 7694,
      "surrend": 7695,
      "sirens": 7696,
      "insisting": 7697,
      "Danger": 7698,
      "customers": 7699,
      "loss": 7700,
      "towns": 7701,
      "spoiling": 7702,
      "bends": 7703,
      "Promise": 7704,
      "nch": 7705,
      "troubles": 7706,
      "fantastic": 7707,
      "shares": 7708,
      "supporting": 7709,
      "wrinkled": 7710,
      "moons": 7711,
      "brake": 7712,
      "storms": 7713,
      "trigger": 7714,
      "pipes": 7715,
      "scent": 7716,
      "shorts": 7717,
      "beaming": 7718,
      "surrendered": 7719,
      "scurry": 7720,
      "iri": 7721,
      "cleans": 7722,
      "hairdresser": 7723,
      "thanking": 7724,
      "cular": 7725,
      "chopped": 7726,
      "Isa": 7727,
      "enjoyable": 7728,
      "environ": 7729,
      "streamers": 7730,
      "arranged": 7731,
      "snowy": 7732,
      "wee": 7733,
      "ana": 7734,
      "ooking": 7735,
      "classm": 7736,
      "bruises": 7737,
      "Nora": 7738,
      "environment": 7739,
      "Flora": 7740,
      "shooed": 7741,
      "Tiger": 7742,
      "grat": 7743,
      "tin": 7744,
      "hisses": 7745,
      "exercises": 7746,
      "nibb": 7747,
      "nights": 7748,
      "visits": 7749,
      "steering": 7750,
      "dangers": 7751,
      "Wil": 7752,
      "cuddles": 7753,
      "coug": 7754,
      "convinced": 7755,
      "Cally": 7756,
      "Ky": 7757,
      "uster": 7758,
      "pilots": 7759,
      "Bert": 7760,
      "signing": 7761,
      "squished": 7762,
      "distra": 7763,
      "nearest": 7764,
      "gratitude": 7765,
      "Turn": 7766,
      "peep": 7767,
      "sunscreen": 7768,
      "ooky": 7769,
      "applauding": 7770,
      "providing": 7771,
      "earned": 7772,
      "Captain": 7773,
      "Barry": 7774,
      "anny": 7775,
      "unfortunately": 7776,
      "rails": 7777,
      "activity": 7778,
      "wealth": 7779,
      "Com": 7780,
      "choosing": 7781,
      "lody": 7782,
      "tapping": 7783,
      "Old": 7784,
      "Tessa": 7785,
      "tickles": 7786,
      "Spicy": 7787,
      "munk": 7788,
      "scram": 7789,
      "coughed": 7790,
      "Pene": 7791,
      "cope": 7792,
      "responsib": 7793,
      "hoy": 7794,
      "annoying": 7795,
      "ilities": 7796,
      "ative": 7797,
      "badger": 7798,
      "weighing": 7799,
      "brains": 7800,
      "Berry": 7801,
      "Gilly": 7802,
      "Set": 7803,
      "Boat": 7804,
      "rewarding": 7805,
      "exploded": 7806,
      "bond": 7807,
      "Helen": 7808,
      "Catch": 7809,
      "laws": 7810,
      "tempted": 7811,
      "youngest": 7812,
      "Microscope": 7813,
      "Waff": 7814,
      "Peace": 7815,
      "Gold": 7816,
      "baa": 7817,
      "soapy": 7818,
      "heartbroken": 7819,
      "appreciated": 7820,
      "emerged": 7821,
      "Penelope": 7822,
      "Fay": 7823,
      "Ahoy": 7824,
      "bathed": 7825,
      "ared": 7826,
      "caw": 7827,
      "clerk": 7828,
      "crocodiles": 7829,
      "ribbit": 7830,
      "Fre": 7831,
      "fet": 7832,
      "range": 7833,
      "messed": 7834,
      "hooks": 7835,
      "threads": 7836,
      "congratulated": 7837,
      "attempt": 7838,
      "guarding": 7839,
      "Candy": 7840,
      "Fortun": 7841,
      "Got": 7842,
      "hover": 7843,
      "example": 7844,
      "apolo": 7845,
      "blank": 7846,
      "common": 7847,
      "beast": 7848,
      "Pegg": 7849,
      "erosity": 7850,
      "Yellow": 7851,
      "Fortunately": 7852,
      "Riri": 7853,
      "dee": 7854,
      "manager": 7855,
      "experienced": 7856,
      "Felix": 7857,
      "Li": 7858,
      "chipmunk": 7859,
      "boards": 7860,
      "Buster": 7861,
      "erasers": 7862,
      "etah": 7863,
      "digs": 7864,
      "tips": 7865,
      "nibbled": 7866,
      "ketch": 7867,
      "bats": 7868,
      "chews": 7869,
      "cheetah": 7870,
      "finishes": 7871,
      "particularly": 7872,
      "forgiveness": 7873,
      "faith": 7874,
      "observing": 7875,
      "mischievous": 7876,
      "bouquet": 7877,
      "Sand": 7878,
      "kinder": 7879,
      "Squeak": 7880,
      "trotted": 7881,
      "cheaper": 7882,
      "Andrew": 7883,
      "Oxygen": 7884,
      "generosity": 7885,
      "Rub": 7886,
      "Three": 7887,
      "target": 7888,
      "Won": 7889,
      "mered": 7890,
      "rips": 7891,
      "Monster": 7892,
      "Peggy": 7893,
      "Gill": 7894,
      "Har": 7895,
      "Pin": 7896,
      "stores": 7897,
      "fishes": 7898,
      "meowing": 7899,
      "argument": 7900,
      "Mila": 7901,
      "dial": 7902,
      "shopper": 7903,
      "Excitedly": 7904,
      "Circle": 7905,
      "Peep": 7906,
      "instantly": 7907,
      "Zog": 7908,
      "Bobbie": 7909,
      "foam": 7910,
      "cages": 7911,
      "gasps": 7912,
      "passes": 7913,
      "limp": 7914,
      "teles": 7915,
      "whir": 7916,
      "mattered": 7917,
      "sleeps": 7918,
      "abra": 7919,
      "masterpiece": 7920,
      "Lung": 7921,
      "Puffy": 7922,
      "Sing": 7923,
      "mats": 7924,
      "breaths": 7925,
      "Matilda": 7926,
      "farmers": 7927,
      "smartest": 7928,
      "accomplished": 7929,
      "idey": 7930,
      "rumbling": 7931,
      "syrup": 7932,
      "Otto": 7933,
      "telescope": 7934,
      "meaning": 7935,
      "styles": 7936,
      "scrambled": 7937,
      "angrily": 7938,
      "forests": 7939,
      "affect": 7940,
      "fif": 7941,
      "moat": 7942,
      "discoveries": 7943,
      "snapping": 7944,
      "vests": 7945,
      "medals": 7946,
      "experiences": 7947,
      "collapsed": 7948,
      "intent": 7949,
      "skirts": 7950,
      "behaviour": 7951,
      "whined": 7952,
      "gardens": 7953,
      "otters": 7954,
      "vegg": 7955,
      "conqu": 7956,
      "imagin": 7957,
      "acles": 7958,
      "trans": 7959,
      "hardest": 7960,
      "Brad": 7961,
      "types": 7962,
      "Doll": 7963,
      "Rainbow": 7964,
      "lers": 7965,
      "chilly": 7966,
      "movements": 7967,
      "bubbly": 7968,
      "webs": 7969,
      "faint": 7970,
      "adabra": 7971,
      "expression": 7972,
      "grasshopper": 7973,
      "Mus": 7974,
      "Race": 7975,
      "patches": 7976,
      "scores": 7977,
      "idy": 7978,
      "pokes": 7979,
      "extraordinary": 7980,
      "Melissa": 7981,
      "horri": 7982,
      "attitude": 7983,
      "Cars": 7984,
      "unfair": 7985,
      "momma": 7986,
      "toothbrush": 7987,
      "March": 7988,
      "ketchup": 7989,
      "Mam": 7990,
      "Vio": 7991,
      "Rosa": 7992,
      "prickly": 7993,
      "Annabelle": 7994,
      "Feel": 7995,
      "bbling": 7996,
      "erts": 7997,
      "Bonnie": 7998,
      "chin": 7999,
      "sooner": 8000,
      "Bar": 8001,
      "afar": 8002,
      "pleas": 8003,
      "spears": 8004,
      "sprout": 8005,
      "Spidey": 8006,
      "Silver": 8007,
      "classmates": 8008,
      "slithered": 8009,
      "iscuit": 8010,
      "consider": 8011,
      "shrunk": 8012,
      "mony": 8013,
      "squeezes": 8014,
      "Ed": 8015,
      "Fun": 8016,
      "dock": 8017,
      "chill": 8018,
      "marking": 8019,
      "glittering": 8020,
      "Mixie": 8021,
      "Ac": 8022,
      "thicker": 8023,
      "luckily": 8024,
      "announced": 8025,
      "iff": 8026,
      "court": 8027,
      "expert": 8028,
      "squin": 8029,
      "elect": 8030,
      "kneeling": 8031,
      "acts": 8032,
      "concer": 8033,
      "Mole": 8034,
      "deserved": 8035,
      "Riley": 8036,
      "thieves": 8037,
      "costs": 8038,
      "shh": 8039,
      "wolves": 8040,
      "jumper": 8041,
      "Tess": 8042,
      "bluebird": 8043,
      "idence": 8044,
      "raking": 8045,
      "trading": 8046,
      "Chip": 8047,
      "vast": 8048,
      "thumbs": 8049,
      "ability": 8050,
      "squeaky": 8051,
      "aret": 8052,
      "cocoon": 8053,
      "zigzags": 8054,
      "aven": 8055,
      "avi": 8056,
      "lunchtime": 8057,
      "tidied": 8058,
      "Paula": 8059,
      "cloths": 8060,
      "Wonder": 8061,
      "Pru": 8062,
      "Park": 8063,
      "seeking": 8064,
      "cheating": 8065,
      "ounce": 8066,
      "hatch": 8067,
      "knit": 8068,
      "spilling": 8069,
      "desserts": 8070,
      "dia": 8071,
      "rin": 8072,
      "Inky": 8073,
      "culp": 8074,
      "visible": 8075,
      "explaining": 8076,
      "Smoke": 8077,
      "Jose": 8078,
      "Waffle": 8079,
      "beating": 8080,
      "snar": 8081,
      "messages": 8082,
      "admit": 8083,
      "Books": 8084,
      "windowsill": 8085,
      "Abra": 8086,
      "zips": 8087,
      "peacock": 8088,
      "hissing": 8089,
      "Carla": 8090,
      "Slinky": 8091,
      "Apr": 8092,
      "actor": 8093,
      "Woolly": 8094,
      "winding": 8095,
      "Tooth": 8096,
      "pressing": 8097,
      "leans": 8098,
      "watermelon": 8099,
      "Steven": 8100,
      "compete": 8101,
      "teen": 8102,
      "April": 8103,
      "discouraged": 8104,
      "flashing": 8105,
      "shallow": 8106,
      "woodcutter": 8107,
      "teapot": 8108,
      "disagreeing": 8109,
      "Ce": 8110,
      "cops": 8111,
      "positive": 8112,
      "Tip": 8113,
      "Val": 8114,
      "glimmering": 8115,
      "dripped": 8116,
      "storing": 8117,
      "Ze": 8118,
      "papa": 8119,
      "trusts": 8120,
      "burger": 8121,
      "tidying": 8122,
      "kangaroos": 8123,
      "Faye": 8124,
      "landing": 8125,
      "Ratty": 8126,
      "fade": 8127,
      "drift": 8128,
      "veggies": 8129,
      "ides": 8130,
      "Sit": 8131,
      "keepers": 8132,
      "Drink": 8133,
      "sleds": 8134,
      "apology": 8135,
      "Ravi": 8136,
      "miller": 8137,
      "heels": 8138,
      "worst": 8139,
      "Beef": 8140,
      "situations": 8141,
      "Pink": 8142,
      "scurrying": 8143,
      "Bru": 8144,
      "Glow": 8145,
      "suns": 8146,
      "comets": 8147,
      "whel": 8148,
      "slee": 8149,
      "officers": 8150,
      "conversation": 8151,
      "ying": 8152,
      "”,": 8153,
      "foggy": 8154,
      "Liza": 8155,
      "foreshadow": 8156,
      "snorted": 8157,
      "differences": 8158,
      "overwhel": 8159,
      "granddaughter": 8160,
      "Quickly": 8161,
      "Drag": 8162,
      "Lemon": 8163,
      "cracker": 8164,
      "structures": 8165,
      "quacking": 8166,
      "pos": 8167,
      "gulp": 8168,
      "cubs": 8169,
      "heaven": 8170,
      "pizzas": 8171,
      "Violet": 8172,
      "possess": 8173,
      "hoot": 8174,
      "approach": 8175,
      "seagulls": 8176,
      "Immediately": 8177,
      "Pot": 8178,
      "bino": 8179,
      "Mona": 8180,
      "opportunity": 8181,
      "Animals": 8182,
      "Liam": 8183,
      "sculp": 8184,
      "drip": 8185,
      "rhino": 8186,
      "Ever": 8187,
      "Orange": 8188,
      "Tu": 8189,
      "rent": 8190,
      "robin": 8191
    },
    "merges": [
      "h e",
      "a n",
      "t he",
      "e d",
      "t o",
      "an d",
      "i n",
      "r e",
      "i t",
      "w a",
      "o u",
      "h a",
      "T he",
      "e r",
      "wa s",
      "a y",
      "e n",
      "o m",
      "i s",
      "a r",
      "o n",
      "i m",
      "s a",
      "i d",
      "l l",
      "l e",
      "in g",
      "s t",
      "o t",
      "a m",
      "o r",
      "i r",
      "n e",
      "The y",
      "p l",
      "i g",
      "a t",
      "H e",
      "b e",
      "i l",
      "l o",
      "a ll",
      "r i",
      "v er",
      "h is",
      "d ay",
      "u t",
      "pl ay",
      "sa id",
      "T im",
      "it h",
      "s e",
      "w ith",
      "p p",
      "he r",
      "k ed",
      "o w",
      "c e",
      "u n",
      "k e",
      "S he",
      "ha t",
      "l d",
      "t h",
      "b ig",
      "en d",
      "y ou",
      "ver y",
      "t ed",
      "v e",
      "l i",
      "c k",
      "w e",
      "ha pp",
      "o f",
      "ri end",
      "f riend",
      "u p",
      "il y",
      "the y",
      "ha d",
      "a d",
      "n ot",
      "w an",
      "g e",
      "it t",
      "om e",
      "the r",
      "d o",
      "n d",
      "b o",
      "a l",
      "happ y",
      "c h",
      "L ily",
      "en t",
      "f or",
      "t hat",
      "sa w",
      "s he",
      "O ne",
      "ou ld",
      "m om",
      "itt le",
      "l ittle",
      "im e",
      "a s",
      "s o",
      "T om",
      "t ime",
      "r o",
      "f e",
      "n am",
      ". \"",
      "ou nd",
      "e s",
      "the re",
      "o o",
      "nam ed",
      "s m",
      "we re",
      "I t",
      "wan ted",
      "b ut",
      "friend s",
      "v ed",
      "! \"",
      "h t",
      "ir d",
      "s h",
      "r y",
      "a re",
      "b ird",
      "to o",
      "r a",
      "O n",
      "m y",
      "ou t",
      "u g",
      "a ke",
      "id e",
      "l p",
      "t er",
      "w ent",
      "On ce",
      "c ar",
      "lo o",
      "u e",
      "he lp",
      "up on",
      "th ing",
      "in d",
      "f un",
      "to y",
      "i ll",
      "am e",
      "d id",
      "l y",
      "ge ther",
      "p e",
      "u r",
      "wa y",
      "s ome",
      "on e",
      "c at",
      "m e",
      "to gether",
      "o re",
      "t re",
      "a ck",
      "a g",
      "ne w",
      "c an",
      "do g",
      "c ame",
      "c ould",
      "oo d",
      "the ir",
      "b all",
      "i c",
      "p ar",
      "g ir",
      "play ed",
      "h im",
      "B ut",
      "? \"",
      "gir l",
      "g o",
      "f u",
      "h o",
      "m an",
      "the m",
      "he n",
      "u m",
      "a x",
      "sa d",
      "S ue",
      "r om",
      "bo y",
      "ha ve",
      "tre e",
      "M ax",
      "lo ved",
      "loo ked",
      "ou g",
      "he d",
      "f ound",
      "st ar",
      "a b",
      "s ide",
      "o ther",
      "b ack",
      "B en",
      "l a",
      "l t",
      "par k",
      "li ke",
      "a in",
      "S am",
      "fu l",
      "ow n",
      "d e",
      "o p",
      "p r",
      "e t",
      "on g",
      "ig ht",
      "n o",
      "p ot",
      "f a",
      "r an",
      "li ked",
      "w ould",
      "s to",
      "c o",
      "m ake",
      "fe lt",
      "Y ou",
      "se e",
      "n ow",
      "wan t",
      "as ked",
      "ou se",
      "ar d",
      "c a",
      "star ted",
      "oug ht",
      "il ed",
      "i ce",
      "g ood",
      "sm all",
      "w or",
      "sm iled",
      "m ore",
      "s ay",
      "ri ed",
      "e x",
      "m ad",
      "s car",
      "r ed",
      "g r",
      "S pot",
      "p ut",
      "k ing",
      "f ind",
      "M om",
      "t y",
      "h ome",
      "a way",
      "w hat",
      "some thing",
      "f rom",
      "mad e",
      "u c",
      "th ought",
      "en ed",
      "s ha",
      "play ing",
      "i a",
      "wa l",
      "e very",
      "a ch",
      "m u",
      "ar n",
      "M ia",
      "i le",
      "bo x",
      "ag ain",
      "h ouse",
      "la ug",
      "re t",
      "d own",
      "u se",
      "too k",
      "scar ed",
      "le arn",
      "n y",
      "u re",
      "toy s",
      "ge t",
      "s s",
      "w ill",
      "g ot",
      "d d",
      "ar ound",
      "thing s",
      "is h",
      "you r",
      "ou d",
      "li ved",
      "e l",
      "i ck",
      "lo w",
      "l ot",
      "a ve",
      "pe c",
      "the n",
      "s un",
      "e p",
      "S o",
      "d er",
      ", \"",
      "w hen",
      "o b",
      "pp ed",
      "i e",
      "n a",
      "b ot",
      "r u",
      "L uc",
      "Luc y",
      "i f",
      "t e",
      "an t",
      "ro om",
      "t ried",
      "k now",
      "say s",
      "um p",
      "it ed",
      "w ho",
      "an y",
      "man y",
      "p ic",
      "ab out",
      "u s",
      "c are",
      "p ret",
      "de c",
      "W e",
      "b y",
      "k new",
      "ou s",
      "is e",
      "all y",
      "p u",
      "is t",
      "way s",
      "q u",
      "learn ed",
      "at e",
      "wa ter",
      "an k",
      "A nd",
      "f ter",
      "be came",
      "be st",
      "i ve",
      "u st",
      "g re",
      "l ong",
      "ne x",
      "b l",
      "ex c",
      "ca use",
      "out side",
      "laug hed",
      "m o",
      "loo k",
      "al ways",
      "he re",
      "dec id",
      "sh ow",
      "e at",
      "it e",
      "decid ed",
      "be cause",
      "f ore",
      "c l",
      "in to",
      "p o",
      "c le",
      "an g",
      "L et",
      "j ump",
      "bot h",
      "The n",
      "r un",
      "h ug",
      "er s",
      "d ad",
      "m a",
      "o k",
      "A n",
      "fa st",
      "s ur",
      "c lo",
      "W hen",
      "t his",
      "exc ited",
      "n ice",
      "fe el",
      "Y es",
      "s or",
      "w h",
      "b b",
      "p a",
      "o ld",
      "b u",
      "in k",
      "to ld",
      "s k",
      "c ome",
      "B ob",
      "b r",
      "in side",
      "f ish",
      "sur pr",
      "H is",
      "in y",
      "oo k",
      "pret ty",
      "f ly",
      "ar a",
      "g ave",
      "t ake",
      "t a",
      "ou r",
      "le t",
      "e ach",
      "j o",
      "mu ch",
      "it s",
      "h ow",
      "An na",
      "le w",
      "un der",
      "im al",
      "an imal",
      "A my",
      "u dd",
      "ne ed",
      "th an",
      "v en",
      "ab le",
      "a c",
      "f low",
      "A s",
      "ha r",
      "sor ry",
      "s w",
      "e ll",
      "u ck",
      "C an",
      "T h",
      "S ara",
      "g ed",
      "is ed",
      "ro ck",
      "d re",
      "Th ank",
      "wal ked",
      "ur t",
      "be ar",
      "re ad",
      "h and",
      "le a",
      "ur n",
      "k ind",
      "ra in",
      "t ry",
      "j ust",
      "happ ened",
      "st r",
      "H er",
      "l ist",
      "f ood",
      "be t",
      "did n",
      "ig h",
      "f i",
      "animal s",
      "wa r",
      "s pec",
      "I n",
      "wa t",
      "ne ar",
      "sk y",
      "in e",
      "c re",
      "v ing",
      "b ug",
      "F rom",
      "ide a",
      "bet ter",
      "he ard",
      "ne ver",
      "ke t",
      "c he",
      "t w",
      "b ro",
      "b ed",
      "pl a",
      "f f",
      "t al",
      "lo ve",
      "n t",
      "s p",
      "b er",
      "care ful",
      "sha re",
      "to w",
      "co l",
      "i al",
      "f lew",
      "any more",
      "c om",
      "spec ial",
      "i on",
      "lot s",
      "l f",
      "p er",
      "w here",
      "d on",
      "w ind",
      "g ive",
      "bo ok",
      "E very",
      "sa fe",
      "l ad",
      "cle an",
      "T hat",
      "gr ound",
      "e ven",
      "op le",
      "m ag",
      "o ver",
      "c ake",
      "as s",
      "sh iny",
      "udd en",
      "t urn",
      "f am",
      "b ad",
      "a fter",
      "D o",
      "udden ly",
      "pe ople",
      "pr oud",
      "ra bb",
      "e ver",
      "do or",
      "surpr ised",
      "h igh",
      "h urt",
      "pec ted",
      "g ard",
      "gard en",
      "op ened",
      "pic ked",
      "l oud",
      "cl im",
      "f ar",
      "nex pected",
      "u nexpected",
      "f o",
      "be a",
      "har d",
      "a pp",
      "W hat",
      "pla ce",
      "un t",
      "col or",
      "than ked",
      "bl ue",
      "st ill",
      "e ar",
      "hug ged",
      "c t",
      "c all",
      "N o",
      "of f",
      "m or",
      "oug h",
      "mag ic",
      "um my",
      "W h",
      "jump ed",
      "J o",
      "sh ould",
      "fam ily",
      "k id",
      "wal k",
      "oo l",
      "sm ile",
      "s qu",
      "ro g",
      "c ha",
      "im p",
      "u ff",
      "re l",
      "gre at",
      "S uddenly",
      "b ra",
      "st ay",
      "str ong",
      "ar k",
      "fore st",
      "t ru",
      "d an",
      "itt y",
      "t ure",
      "s l",
      "b le",
      "f rog",
      "unt il",
      "S ally",
      "bea ut",
      "st ick",
      "d y",
      "bo at",
      "or t",
      "n ing",
      "es s",
      "nex t",
      "lea se",
      "T his",
      "K itty",
      "A fter",
      "p t",
      "happ ily",
      "list en",
      "c hed",
      "kid s",
      "beaut i",
      "beauti ful",
      "s ed",
      "help ed",
      "y es",
      "show ed",
      "wh ile",
      "un ny",
      "sto ry",
      "tow n",
      "c u",
      "ke ep",
      "A t",
      "pic ture",
      "of t",
      "re e",
      "st e",
      "ll y",
      "be ing",
      "a k",
      "me t",
      "every one",
      "i p",
      "ra w",
      "call ed",
      "le s",
      "sto pped",
      "g ame",
      "N ow",
      "F in",
      "s ing",
      "ang ry",
      "jo y",
      "uff y",
      "op en",
      "an e",
      "tru ck",
      "l uffy",
      "s oft",
      "y ummy",
      "c ry",
      "lo st",
      "J ack",
      "v ent",
      "war m",
      "il d",
      "as k",
      "bra ve",
      "wor k",
      "m ouse",
      "on d",
      "w on",
      "is hed",
      "wat ch",
      "could n",
      "do ll",
      "fa ce",
      "le ave",
      "flow er",
      "al so",
      "fe ll",
      "flow ers",
      "gre en",
      "m on",
      "ll o",
      "tw o",
      "laug h",
      "le ss",
      "lo ck",
      "g an",
      "L ook",
      "no ise",
      "ir st",
      "ow l",
      "r ight",
      "sto re",
      "cre am",
      "so on",
      "se lf",
      "to p",
      "sl ide",
      "s er",
      "ho le",
      "H i",
      "F luffy",
      "i z",
      "sa t",
      "be fore",
      "ir rel",
      "ke y",
      "un g",
      "ir ed",
      "ill y",
      "he ar",
      "ra ce",
      "t able",
      "ke pt",
      "y ard",
      "no dd",
      "squ irrel",
      "to r",
      "nodd ed",
      "us ed",
      "sw ing",
      "ex pl",
      "bird s",
      "v o",
      "rabb it",
      "ha ving",
      "p ain",
      "hand s",
      "m ber",
      "se t",
      "go ing",
      "t r",
      "loo king",
      "D on",
      "fun ny",
      "re st",
      "he ad",
      "ay be",
      "u ch",
      "cat ch",
      "ug ht",
      "f in",
      "she d",
      "y ell",
      "th ink",
      "le ep",
      "fi x",
      "ll ed",
      "s n",
      "t ing",
      "t ired",
      "b unny",
      "am a",
      "w r",
      "ri es",
      "n ight",
      "th r",
      "k it",
      "te ll",
      "s ound",
      "me mber",
      "ha s",
      "me an",
      "c ook",
      "co ld",
      "Wh y",
      "p ond",
      "sun ny",
      "other s",
      "tal k",
      "f lo",
      "c hen",
      "d s",
      "kit chen",
      "wa it",
      "c ut",
      "p ie",
      "D ad",
      "c ou",
      "d if",
      "f irst",
      "He llo",
      "mom my",
      "e yes",
      "imp ort",
      "a ge",
      "fa v",
      "i es",
      "s we",
      "c on",
      "at h",
      "re member",
      "clim b",
      "par ty",
      "f t",
      "i ous",
      "s and",
      "b ar",
      "or n",
      "mo ve",
      "ll ow",
      "cu ri",
      "import ant",
      "l ight",
      "d uck",
      "mor al",
      "sha red",
      "z y",
      "st er",
      "ok ay",
      "dre ss",
      "ad vent",
      "as h",
      "wor ked",
      "ma king",
      "en joy",
      "br ight",
      "time s",
      "curi ous",
      "f ru",
      "ag re",
      "Mom my",
      "Jo h",
      "t all",
      "d ir",
      "h one",
      "h id",
      "Joh n",
      "fav or",
      "d is",
      "W ow",
      "s leep",
      "favor ite",
      "be gan",
      "sha r",
      "B o",
      "b ag",
      "fi re",
      "h ill",
      "agre ed",
      "d raw",
      "sh o",
      "k en",
      "b re",
      "c la",
      "q ue",
      "h ind",
      "wat ched",
      "fo llow",
      "m ess",
      "z ed",
      "M r",
      "p ick",
      "p lease",
      "b lock",
      "sto p",
      "h ung",
      "be hind",
      "g u",
      "surpr ise",
      "pa per",
      "h ot",
      "M aybe",
      "wor ry",
      "d ark",
      "d ro",
      "Bo bo",
      "tre es",
      "vo ice",
      "gr ass",
      "wal king",
      "a ir",
      "ta il",
      "fe re",
      "li on",
      "flo or",
      "far m",
      "dif fere",
      "s ong",
      "st and",
      "feel ing",
      "but ter",
      "l ed",
      "we l",
      "read y",
      "i ed",
      "color s",
      "lad y",
      "J ane",
      "an ge",
      "Tim my",
      "is y",
      "leave s",
      "clo ser",
      "ig n",
      "car s",
      "turn ed",
      "need ed",
      "w ood",
      "c ried",
      "t ri",
      "differe nt",
      "pie ce",
      "advent ure",
      "do es",
      "pr in",
      "ha ir",
      "hung ry",
      "c ked",
      "t ra",
      "by e",
      "yell ow",
      "swe et",
      "c ed",
      "fu ll",
      "to uch",
      "we t",
      "m ar",
      "friend ly",
      "m is",
      "i ke",
      "c r",
      "g er",
      "d in",
      "bro ken",
      "m ou",
      "c ra",
      "A ll",
      "l and",
      "i ent",
      "s it",
      "m ed",
      "p rom",
      "an other",
      "pret end",
      "dan ce",
      "re ac",
      "clim bed",
      "list ened",
      "pl an",
      "t le",
      "p en",
      "at er",
      "f l",
      "run ning",
      "T o",
      "on ly",
      "ri ver",
      "g one",
      "sw im",
      "il a",
      "t rain",
      "and ma",
      "sm ell",
      "th ank",
      "The re",
      "clo se",
      "p le",
      "g g",
      "L ila",
      "pe t",
      "ho ld",
      "ab y",
      "cha ir",
      "block s",
      "won der",
      "Every one",
      "a v",
      "f ight",
      "reac hed",
      "li e",
      "wa ll",
      "b or",
      "ra g",
      "n er",
      "help ing",
      "ar y",
      "k ay",
      "s low",
      "z e",
      "c ool",
      "g lad",
      "ho p",
      "good bye",
      "be en",
      "we ar",
      "fa ir",
      "pu shed",
      "in s",
      "er ed",
      "o on",
      "ic ed",
      "d r",
      "b it",
      "J ust",
      "se es",
      "h ide",
      "com ing",
      "mu st",
      "mom ent",
      "wind ow",
      "f r",
      "ball oon",
      "re pl",
      "d one",
      "s now",
      "expl ore",
      "b ow",
      "So on",
      "w ished",
      "b aby",
      "st uck",
      "bu y",
      "re al",
      "f all",
      "m ight",
      "nam e",
      "app le",
      "try ing",
      "qu ick",
      "scar y",
      "look s",
      "dre am",
      "do ing",
      "a isy",
      "ing s",
      "dir ty",
      "bu ild",
      "ou ted",
      "pp y",
      "c ket",
      "he ld",
      "B e",
      "am es",
      "s po",
      "ar m",
      "j e",
      "w ise",
      "ca st",
      "butter fly",
      "s wa",
      "le ft",
      "de li",
      "sh outed",
      "repl ied",
      "s ure",
      "w o",
      "w in",
      "e m",
      "re ach",
      "wh y",
      "b ran",
      "thr ough",
      "t iny",
      "wa g",
      "m i",
      "m at",
      "th ree",
      "tre at",
      "gr ow",
      "pu lled",
      "bro ther",
      "wood s",
      "ar t",
      "f ill",
      "to n",
      "b us",
      "se en",
      "c up",
      "p ink",
      "pl ant",
      "cla pped",
      "ie ld",
      "some times",
      "and y",
      "y ear",
      "cl oud",
      "swa m",
      "g rabb",
      "O kay",
      "In side",
      "j ob",
      "color ful",
      "ne st",
      "remember ed",
      "big ger",
      "mou th",
      "jo in",
      "less on",
      "O h",
      "wa ved",
      "grabb ed",
      "stay ed",
      "D aisy",
      "udd y",
      "r ot",
      "B uddy",
      "clo the",
      "na p",
      "ou p",
      "wa ited",
      "clothe s",
      "he av",
      "quick ly",
      "p are",
      "bro ke",
      "g ames",
      "g ent",
      "v is",
      "b lew",
      "Fin ally",
      "g l",
      "uck y",
      "er ous",
      "Wh ile",
      "r ow",
      "z z",
      "not iced",
      "enjoy ed",
      "ta st",
      "p ur",
      "th re",
      "like s",
      "pain t",
      "se a",
      "picture s",
      "book s",
      "d ry",
      "heav y",
      "g if",
      "al one",
      "mu s",
      "as ure",
      "any thing",
      "s pot",
      "li ve",
      "ho pped",
      "turn s",
      "Tom my",
      "wor ld",
      "cast le",
      "con t",
      "p at",
      "Sara h",
      "mi x",
      "b ike",
      "t ight",
      "for got",
      "every where",
      "Jo e",
      "tow er",
      "r ound",
      "thre w",
      "w his",
      "him self",
      "P lease",
      "follow ed",
      "j u",
      "r ide",
      "bo ard",
      "a ther",
      "fru it",
      "\" .",
      "wh ite",
      "se c",
      "wr ong",
      "make s",
      "st ran",
      "E m",
      "bre ak",
      "p re",
      "bl ack",
      "pare nt",
      "th y",
      "be e",
      "mus ic",
      "de ep",
      "ce ss",
      "R e",
      "sto ne",
      "o lly",
      "B illy",
      "at ion",
      "w he",
      "ou n",
      "st re",
      "p ill",
      "w i",
      "l ar",
      "i et",
      "dan ced",
      "a p",
      "a li",
      "lea f",
      "want s",
      "qu iet",
      "b a",
      "mon ster",
      "under stand",
      "b owl",
      "f ur",
      "C ome",
      "u b",
      "tal ked",
      "p es",
      "itt en",
      "fast er",
      "fu lly",
      "cook ies",
      "p ro",
      "br ought",
      "le g",
      "ro ss",
      "s c",
      "p h",
      "c y",
      "m um",
      "s ign",
      "u ed",
      "s is",
      "we ll",
      "an ce",
      "t s",
      "sm art",
      "rock s",
      "some one",
      "po in",
      "shar ing",
      "co ver",
      "re ali",
      "fo x",
      "but ton",
      "happ en",
      "bran ch",
      "fin ished",
      "re ally",
      "o om",
      "h it",
      "en ce",
      "or ange",
      "G r",
      "it ch",
      "sis ter",
      "c orn",
      "din ner",
      "z ing",
      "g i",
      "fly ing",
      "e le",
      "mo st",
      "cont in",
      "fe ct",
      "wor ried",
      "s y",
      "be ach",
      "a f",
      "pl ane",
      "d ang",
      "w ish",
      "sec ret",
      "st u",
      "dre n",
      "ch il",
      "f ree",
      "s pe",
      "to day",
      "per fect",
      "m in",
      "sh in",
      "every thing",
      "s illy",
      "chil dren",
      "fill ed",
      "f ield",
      "el se",
      "ot h",
      "ste ad",
      "smile s",
      "O K",
      "vis it",
      "p ow",
      "s ang",
      "sn ack",
      "pu ll",
      "ask s",
      "parent s",
      "pu dd",
      "eat ing",
      "piece s",
      "reali zed",
      "prom ised",
      "c tor",
      "p ig",
      "s pr",
      "p ers",
      "contin ued",
      "b ite",
      "se s",
      "care fully",
      "itt ing",
      "on s",
      "h ig",
      "g ra",
      "j ar",
      "p hone",
      "pp er",
      "c ow",
      "at ed",
      "wor ds",
      "d rag",
      "mo ved",
      "mu d",
      "ro lled",
      "wa ve",
      "am p",
      "app ear",
      "cry ing",
      "L e",
      "en ough",
      "bl an",
      "blan ket",
      "J im",
      "b ath",
      "one y",
      "s oup",
      "d ri",
      "m other",
      "sa il",
      "pu sh",
      "im i",
      "M imi",
      "M y",
      "J en",
      "dr ink",
      "S ome",
      "b oun",
      "sn ake",
      "p ass",
      "thr ow",
      "ro ll",
      "fair y",
      "cra b",
      "laugh ing",
      "ama zing",
      "ot e",
      "get ting",
      "pur ple",
      "with out",
      "bot tle",
      "gr andma",
      "gif t",
      "ma il",
      "s pl",
      "m oney",
      "bar ked",
      "wag ged",
      "mon key",
      "pa st",
      "wel come",
      "se l",
      "ch ool",
      "br own",
      "do ctor",
      "is es",
      "clo sed",
      "s chool",
      "pp ing",
      "c ious",
      "mor ning",
      "own er",
      "c andy",
      "l one",
      "hig her",
      "s itting",
      ". ”",
      "s too",
      "tre asure",
      "he s",
      "dang erous",
      "! ”",
      "ne t",
      "lone ly",
      "sh op",
      "li ving",
      "ic y",
      "app les",
      "cou nt",
      "stran ge",
      "com for",
      "B l",
      "sm o",
      "ro ad",
      "shin ing",
      "e gg",
      "ant s",
      "pa w",
      "un a",
      "cre at",
      "ck s",
      "sho es",
      "i ble",
      "tal king",
      "al thy",
      "ca ught",
      "C h",
      "stoo d",
      "l ake",
      "let ter",
      "run s",
      "co at",
      "b as",
      "w ings",
      "che e",
      "ch o",
      "f an",
      "v a",
      "ne e",
      "F red",
      "year s",
      "bas ket",
      "drag on",
      "day s",
      "be lie",
      "m ine",
      "think s",
      "deli cious",
      "pudd le",
      "no se",
      "ig g",
      "farm er",
      "sa me",
      "Em ma",
      "ted dy",
      "m ind",
      "un ch",
      "se ar",
      "che s",
      "W his",
      "M olly",
      "G ood",
      "f it",
      "br ing",
      "gent le",
      "war ds",
      "star t",
      "To gether",
      "fin ally",
      "cr ay",
      "k ite",
      "s cream",
      "po l",
      "she ll",
      "v ill",
      "sing ing",
      "h or",
      "tast y",
      "id ge",
      "a ce",
      "b en",
      "tr ou",
      "her self",
      "hop ed",
      "w ore",
      "an sw",
      "ar ri",
      "swing s",
      "Bl ue",
      "un i",
      "k is",
      "be long",
      "p ack",
      "k ers",
      "bu sh",
      "n g",
      "k n",
      "wo ke",
      "car rot",
      "m ing",
      "B ell",
      "ught y",
      "te ach",
      "ele ph",
      "na ughty",
      "dro pped",
      "h u",
      "Whis kers",
      "te ac",
      "co ll",
      "p ile",
      "hid ing",
      "c our",
      "The ir",
      "Re my",
      "d i",
      "Bell a",
      "be ll",
      "to uc",
      "is a",
      "v al",
      "k no",
      "s u",
      "pu ppy",
      "ll ie",
      "I f",
      "l unch",
      "tw ins",
      "sa ck",
      "m ent",
      "ro pe",
      "m ach",
      "M ark",
      "L isa",
      "cour se",
      "Gr andma",
      "sha pes",
      "che ered",
      "gre w",
      "l ay",
      "vill age",
      "fu sed",
      "she lf",
      "er ful",
      "ir th",
      "sp in",
      "ju ice",
      "wor d",
      "rain bow",
      "par t",
      "irth day",
      "sh ook",
      "ben ch",
      "f ence",
      "stre et",
      "cut e",
      "n ut",
      "J ill",
      "c al",
      "chee se",
      "touc hed",
      "ball s",
      "or m",
      "s had",
      "w and",
      "se ed",
      "te a",
      "e as",
      "teac her",
      "d es",
      "lo om",
      "arri ved",
      "b and",
      "w ra",
      "fore ver",
      "car ry",
      "fe w",
      "ll a",
      "bug s",
      "sound s",
      "s li",
      "G o",
      "ble m",
      "pro blem",
      "c ing",
      "n um",
      "prom ise",
      "il k",
      "i er",
      "b irthday",
      "wonder ful",
      "doll s",
      "H ow",
      "sto r",
      "bus y",
      "sh y",
      "ir p",
      "feel s",
      "b read",
      "ad e",
      "ne ck",
      "m ilk",
      "i an",
      "ro bot",
      "ve l",
      "nt ain",
      "p op",
      "hear t",
      "belie ve",
      "ir t",
      "ca ve",
      "po cket",
      "sha ke",
      "see k",
      "help ful",
      "stor m",
      "slow ly",
      "P e",
      "ump y",
      "pat ient",
      "ber ries",
      "appear ed",
      "ug ly",
      "d river",
      "hold ing",
      "to wards",
      "eleph ant",
      "up set",
      "r ing",
      "t urt",
      "k itten",
      "sto ries",
      "s uc",
      "l ate",
      "spl ash",
      "S ure",
      "hone y",
      "z oom",
      "c ir",
      "no ises",
      "shar p",
      "L ater",
      "s park",
      "gr ay",
      "dir t",
      "Le o",
      "d ist",
      "se at",
      "An n",
      "uc ket",
      "b ucket",
      "sh r",
      "me et",
      "you ng",
      "not e",
      "u ce",
      "ama zed",
      "turt le",
      "spo on",
      "treat s",
      "sp id",
      "u ll",
      "magic al",
      "was h",
      "sh ine",
      "p ed",
      "er a",
      "g low",
      "M ama",
      "f old",
      "le mon",
      "tri p",
      "comfor table",
      "g en",
      "m ist",
      "que st",
      "h ang",
      "j our",
      "hor se",
      "lot h",
      "ad d",
      "c loth",
      "pu zz",
      "Dad dy",
      "or gan",
      "prin cess",
      "ro ar",
      "cook ie",
      "pic y",
      "dri ve",
      "oo se",
      "hug s",
      "w ild",
      "ta king",
      "whe el",
      "bl ed",
      "organ iz",
      "mis s",
      "s ug",
      "il ing",
      "ri ch",
      "O f",
      "str ing",
      "in stead",
      "t i",
      "ru de",
      "l ucky",
      "dro ve",
      "er o",
      "B u",
      "hu ge",
      "m er",
      "co in",
      "li ce",
      "fight ing",
      "star s",
      "s picy",
      "b one",
      "M ary",
      "c raw",
      "He y",
      "t ie",
      "d en",
      "c or",
      "e k",
      "bu bb",
      "la st",
      "w ide",
      "car d",
      "C at",
      "li fe",
      "R o",
      "whis tle",
      "p ath",
      "ne y",
      "can not",
      "s ick",
      "b at",
      "come s",
      "ru sh",
      "rest ing",
      "cir cle",
      "spid er",
      "fo ot",
      "in v",
      "song s",
      "snow man",
      "ch ange",
      "L una",
      "pill ow",
      "fix ed",
      "W ith",
      "sa ge",
      "bo ss",
      "gi ant",
      "jo ke",
      "er ry",
      "for get",
      "sh ip",
      "p ra",
      "mo on",
      "wor m",
      "ta ste",
      "gr umpy",
      "w ing",
      "mach ine",
      "cou n",
      "th in",
      "st ep",
      "b ri",
      "gra b",
      "at t",
      "r ad",
      "pe ace",
      "Ch irp",
      "s our",
      "in ed",
      "dad dy",
      "f ing",
[...]
