{
  "version": "1.0",
  "truncation": null,
  "padding": null,
  "added_tokens": [
    {
      "id": 0,
      "content": "[UNK]",
      "single_word": false,
      "lstrip": false,
      "rstrip": false,
      "normalized": false,
      "special": true
    },
    {
      "id": 1,
      "content": "<eos>",
      "single_word": false,
      "lstrip": false,
      "rstrip": false,
      "normalized": false,
      "special": true
    }
  ],
  "normalizer": null,
  "pre_tokenizer": {
    "type": "Whitespace"
  },
  "post_processor": null,
  "decoder": null,
  "model": {
    "type": "BPE",
    "dropout": null,
    "unk_token": "[UNK]",
    "continuing_subword_prefix": null,
    "end_of_word_suffix": null,
    "fuse_unk": false,
    "byte_fallback": false,
    "ignore_merges": false,
    "vocab": {
      "[UNK]": 0,
      "<eos>": 1,
      "!": 2,
      "\"": 3,
      "#": 4,
      "$": 5,
      "%": 6,
      "&": 7,
      "'": 8,
      "(": 9,
      ")": 10,
      "*": 11,
      "+": 12,
      ",": 13,
      "-": 14,
      ".": 15,
      "/": 16,
      "0": 17,
      "1": 18,
      "2": 19,
      "3": 20,
      "4": 21,
      "5": 22,
      "6": 23,
      "7": 24,
      "8": 25,
      "9": 26,
      ":": 27,
      ";": 28,
      "<": 29,
      "=": 30,
      ">": 31,
      "?": 32,
      "@": 33,
      "A": 34,
      "B": 35,
      "C": 36,
      "D": 37,
      "E": 38,
      "F": 39,
      "G": 40,
      "H": 41,
      "I": 42,
      "J": 43,
      "K": 44,
      "L": 45,
      "M": 46,
      "N": 47,
      "O": 48,
      "P": 49,
      "Q": 50,
      "R": 51,
      "S": 52,
      "T": 53,
      "U": 54,
      "V": 55,
      "W": 56,
      "X": 57,
      "Y": 58,
      "Z": 59,
      "[": 60,
      "\\": 61,
      "]": 62,
      "_": 63,
      "`": 64,
      "a": 65,
      "b": 66,
      "c": 67,
      "d": 68,
      "e": 69,
      "f": 70,
      "g": 71,
      "h": 72,
      "i": 73,
      "j": 74,
      "k": 75,
      "l": 76,
      "m": 77,
      "n": 78,
      "o": 79,
      "p": 80,
      "q": 81,
      "r": 82,
      "s": 83,
      "t": 84,
      "u": 85,
      "v": 86,
      "w": 87,
      "x": 88,
      "y": 89,
      "z": 90,
      "{": 91,
      "|": 92,
      "}": 93,
      "~": 94,
      "": 95,
      "": 96,
      "": 97,
      "¡": 98,
      "¢": 99,
      "£": 100,
      "§": 101,
      "«": 102,
      "­": 103,
      "°": 104,
      "´": 105,
      "·": 106,
      "»": 107,
      "¿": 108,
      "É": 109,
      "ß": 110,
      "à": 111,
      "á": 112,
      "â": 113,
      "è": 114,
      "é": 115,
      "ê": 116,
      "í": 117,
      "ï": 118,
      "ñ": 119,
      "ó": 120,
      "ö": 121,
      "ú": 122,
      "ā": 123,
      "İ": 124,
      "œ": 125,
      "ɪ": 126,
      "ʏ": 127,
      "ʙ": 128,
      "ʜ": 129,
      "і": 130,
      "ғ": 131,
      "ᴀ": 132,
      "ᴄ": 133,
      "ᴅ": 134,
      "ᴇ": 135,
      "ᴏ": 136,
      "ᴛ": 137,
      "ᴜ": 138,
      "ᴡ": 139,
      "ᴢ": 140,
      "​": 141,
      "‌": 142,
      "‎": 143,
      "‐": 144,
      "‑": 145,
      "–": 146,
      "—": 147,
      "―": 148,
      "‘": 149,
      "’": 150,
      "‚": 151,
      "“": 152,
      "”": 153,
      "„": 154,
      "…": 155,
      "‪": 156,
      "€": 157,
      "™": 158,
      "−": 159,
      "─": 160,
      "❤": 161,
      "。": 162,
      "一": 163,
      "了": 164,
      "些": 165,
      "他": 166,
      "但": 167,
      "保": 168,
      "個": 169,
      "們": 170,
      "兒": 171,
      "兩": 172,
      "分": 173,
      "到": 174,
      "剛": 175,
      "又": 176,
      "和": 177,
      "在": 178,
      "天": 179,
      "奮": 180,
      "她": 181,
      "己": 182,
      "巴": 183,
      "度": 184,
      "很": 185,
      "恩": 186,
      "應": 187,
      "把": 188,
      "整": 189,
      "是": 190,
      "時": 191,
      "會": 192,
      "獨": 193,
      "玉": 194,
      "田": 195,
      "留": 196,
      "當": 197,
      "的": 198,
      "童": 199,
      "答": 200,
      "米": 201,
      "給": 202,
      "自": 203,
      "興": 204,
      "艾": 205,
      "莉": 206,
      "裡": 207,
      "這": 208,
      "過": 209,
      "難": 210,
      "高": 211,
      "": 212,
      "": 213,
      "️": 214,
      "﻿": 215,
      "，": 216,
      "�": 217,
      "🌴": 218,
      "🍌": 219,
      "🎓": 220,
      "🤩": 221,
      "he": 222,
      "an": 223,
      "the": 224,
      "ed": 225,
      "to": 226,
      "and": 227,
      "in": 228,
      "re": 229,
      "it": 230,
      "wa": 231,
      "ou": 232,
      "ha": 233,
      "The": 234,
      "er": 235,
      "was": 236,
      "ay": 237,
      "en": 238,
      "om": 239,
      "is": 240,
      "ar": 241,
      "on": 242,
      "im": 243,
      "sa": 244,
      "id": 245,
      "ll": 246,
      "le": 247,
      "ing": 248,
      "st": 249,
      "ot": 250,
      "am": 251,
      "or": 252,
      "ir": 253,
      "ne": 254,
      "They": 255,
      "pl": 256,
      "ig": 257,
      "at": 258,
      "He": 259,
      "be": 260,
      "il": 261,
      "lo": 262,
      "all": 263,
      "ri": 264,
      "ver": 265,
      "his": 266,
      "day": 267,
      "ut": 268,
      "play": 269,
      "said": 270,
      "Tim": 271,
      "ith": 272,
      "se": 273,
      "with": 274,
      "pp": 275,
      "her": 276,
      "ked": 277,
      "ow": 278,
      "ce": 279,
      "un": 280,
      "ke": 281,
      "She": 282,
      "hat": 283,
      "ld": 284,
      "th": 285,
      "big": 286,
      "end": 287,
      "you": 288,
      "very": 289,
      "ted": 290,
      "ve": 291,
      "li": 292,
      "ck": 293,
      "we": 294,
      "happ": 295,
      "of": 296,
      "riend": 297,
      "friend": 298,
      "up": 299,
      "ily": 300,
      "they": 301,
      "had": 302,
      "ad": 303,
      "not": 304,
      "wan": 305,
      "ge": 306,
      "itt": 307,
      "ome": 308,
      "ther": 309,
      "do": 310,
      "nd": 311,
      "bo": 312,
      "al": 313,
      "happy": 314,
      "ch": 315,
      "Lily": 316,
      "ent": 317,
      "for": 318,
      "that": 319,
      "saw": 320,
      "she": 321,
      "One": 322,
      "ould": 323,
      "mom": 324,
      "ittle": 325,
      "little": 326,
      "ime": 327,
      "as": 328,
      "so": 329,
      "Tom": 330,
      "time": 331,
      "ro": 332,
      "fe": 333,
      "nam": 334,
      ".\"": 335,
      "ound": 336,
      "es": 337,
      "there": 338,
      "oo": 339,
      "named": 340,
      "sm": 341,
      "were": 342,
      "It": 343,
      "wanted": 344,
      "but": 345,
      "friends": 346,
      "ved": 347,
      "!\"": 348,
      "ht": 349,
      "ird": 350,
      "sh": 351,
      "ry": 352,
      "are": 353,
      "bird": 354,
      "too": 355,
      "ra": 356,
      "On": 357,
      "my": 358,
      "out": 359,
      "ug": 360,
      "ake": 361,
      "ide": 362,
      "lp": 363,
      "ter": 364,
      "went": 365,
      "Once": 366,
      "car": 367,
      "loo": 368,
      "ue": 369,
      "help": 370,
      "upon": 371,
      "thing": 372,
      "ind": 373,
      "fun": 374,
      "toy": 375,
      "ill": 376,
      "ame": 377,
      "did": 378,
      "ly": 379,
      "gether": 380,
      "pe": 381,
      "ur": 382,
      "way": 383,
      "some": 384,
      "one": 385,
      "cat": 386,
      "me": 387,
      "together": 388,
      "ore": 389,
      "tre": 390,
      "ack": 391,
      "ag": 392,
      "new": 393,
      "can": 394,
      "dog": 395,
      "came": 396,
      "could": 397,
      "ood": 398,
      "their": 399,
      "ball": 400,
      "ic": 401,
      "par": 402,
      "gir": 403,
      "played": 404,
      "him": 405,
      "But": 406,
      "?\"": 407,
      "girl": 408,
      "go": 409,
      "fu": 410,
      "ho": 411,
      "man": 412,
      "them": 413,
      "hen": 414,
      "um": 415,
      "ax": 416,
      "sad": 417,
      "Sue": 418,
      "rom": 419,
      "boy": 420,
      "have": 421,
      "tree": 422,
      "Max": 423,
      "loved": 424,
      "looked": 425,
      "oug": 426,
      "hed": 427,
      "found": 428,
      "star": 429,
      "ab": 430,
      "side": 431,
      "other": 432,
      "back": 433,
      "Ben": 434,
      "la": 435,
      "lt": 436,
      "park": 437,
      "like": 438,
      "ain": 439,
      "Sam": 440,
      "ful": 441,
      "own": 442,
      "de": 443,
      "op": 444,
      "pr": 445,
      "et": 446,
      "ong": 447,
      "ight": 448,
      "no": 449,
      "pot": 450,
      "fa": 451,
      "ran": 452,
      "liked": 453,
      "would": 454,
      "sto": 455,
      "co": 456,
      "make": 457,
      "felt": 458,
      "You": 459,
      "see": 460,
      "now": 461,
      "want": 462,
      "asked": 463,
      "ouse": 464,
      "ard": 465,
      "ca": 466,
      "started": 467,
      "ought": 468,
      "iled": 469,
      "ice": 470,
      "good": 471,
      "small": 472,
      "wor": 473,
      "smiled": 474,
      "more": 475,
      "say": 476,
      "ried": 477,
      "ex": 478,
      "mad": 479,
      "scar": 480,
      "red": 481,
      "gr": 482,
      "Spot": 483,
      "put": 484,
      "king": 485,
      "find": 486,
      "Mom": 487,
      "ty": 488,
      "home": 489,
      "away": 490,
      "what": 491,
      "something": 492,
      "from": 493,
      "made": 494,
      "uc": 495,
      "thought": 496,
      "ened": 497,
      "sha": 498,
      "playing": 499,
      "ia": 500,
      "wal": 501,
      "every": 502,
      "ach": 503,
      "mu": 504,
      "arn": 505,
      "Mia": 506,
      "ile": 507,
      "box": 508,
      "again": 509,
      "house": 510,
      "laug": 511,
      "ret": 512,
      "down": 513,
      "use": 514,
      "took": 515,
      "scared": 516,
      "learn": 517,
      "ny": 518,
      "ure": 519,
      "toys": 520,
      "get": 521,
      "ss": 522,
      "will": 523,
      "got": 524,
      "dd": 525,
      "around": 526,
      "things": 527,
      "ish": 528,
      "your": 529,
      "oud": 530,
      "lived": 531,
      "el": 532,
      "ick": 533,
      "low": 534,
      "lot": 535,
      "ave": 536,
      "pec": 537,
      "then": 538,
      "sun": 539,
      "ep": 540,
      "So": 541,
      "der": 542,
      ",\"": 543,
      "when": 544,
      "ob": 545,
      "pped": 546,
      "ie": 547,
      "na": 548,
      "bot": 549,
      "ru": 550,
      "Luc": 551,
      "Lucy": 552,
      "if": 553,
      "te": 554,
      "ant": 555,
      "room": 556,
      "tried": 557,
      "know": 558,
      "says": 559,
      "ump": 560,
      "ited": 561,
      "who": 562,
      "any": 563,
      "many": 564,
      "pic": 565,
      "about": 566,
      "us": 567,
      "care": 568,
      "pret": 569,
      "dec": 570,
      "We": 571,
      "by": 572,
      "knew": 573,
      "ous": 574,
      "ise": 575,
      "ally": 576,
      "pu": 577,
      "ist": 578,
      "ways": 579,
      "qu": 580,
      "learned": 581,
      "ate": 582,
      "water": 583,
      "ank": 584,
      "And": 585,
      "fter": 586,
      "became": 587,
      "best": 588,
      "ive": 589,
      "ust": 590,
      "gre": 591,
      "long": 592,
      "nex": 593,
      "bl": 594,
      "exc": 595,
      "cause": 596,
      "outside": 597,
      "laughed": 598,
      "mo": 599,
      "look": 600,
      "always": 601,
      "here": 602,
      "decid": 603,
      "show": 604,
      "eat": 605,
      "ite": 606,
      "decided": 607,
      "because": 608,
      "fore": 609,
      "cl": 610,
      "into": 611,
      "po": 612,
      "cle": 613,
      "ang": 614,
      "Let": 615,
      "jump": 616,
      "both": 617,
      "Then": 618,
      "run": 619,
      "hug": 620,
      "ers": 621,
      "dad": 622,
      "ma": 623,
      "ok": 624,
      "An": 625,
      "fast": 626,
      "sur": 627,
      "clo": 628,
      "When": 629,
      "this": 630,
      "excited": 631,
      "nice": 632,
      "feel": 633,
      "Yes": 634,
      "sor": 635,
      "wh": 636,
      "bb": 637,
      "pa": 638,
      "old": 639,
      "bu": 640,
      "ink": 641,
      "told": 642,
      "sk": 643,
      "come": 644,
      "Bob": 645,
      "br": 646,
      "inside": 647,
      "fish": 648,
      "surpr": 649,
      "His": 650,
      "iny": 651,
      "ook": 652,
      "pretty": 653,
      "fly": 654,
      "ara": 655,
      "gave": 656,
      "take": 657,
      "ta": 658,
      "our": 659,
      "let": 660,
      "each": 661,
      "jo": 662,
      "much": 663,
      "its": 664,
      "how": 665,
      "Anna": 666,
      "lew": 667,
      "under": 668,
      "imal": 669,
      "animal": 670,
      "Amy": 671,
      "udd": 672,
      "need": 673,
      "than": 674,
      "ven": 675,
      "able": 676,
      "ac": 677,
      "flow": 678,
      "As": 679,
      "har": 680,
      "sorry": 681,
      "sw": 682,
      "ell": 683,
      "uck": 684,
      "Can": 685,
      "Th": 686,
      "Sara": 687,
      "ged": 688,
      "ised": 689,
      "rock": 690,
      "dre": 691,
      "Thank": 692,
      "walked": 693,
      "urt": 694,
      "bear": 695,
      "read": 696,
      "hand": 697,
      "lea": 698,
      "urn": 699,
      "kind": 700,
      "rain": 701,
      "try": 702,
      "just": 703,
      "happened": 704,
      "str": 705,
      "Her": 706,
      "list": 707,
      "food": 708,
      "bet": 709,
      "didn": 710,
      "igh": 711,
      "fi": 712,
      "animals": 713,
      "war": 714,
      "spec": 715,
      "In": 716,
      "wat": 717,
      "near": 718,
      "sky": 719,
      "ine": 720,
      "cre": 721,
      "ving": 722,
      "bug": 723,
      "From": 724,
      "idea": 725,
      "better": 726,
      "heard": 727,
      "never": 728,
      "ket": 729,
      "che": 730,
      "tw": 731,
      "bro": 732,
      "bed": 733,
      "pla": 734,
      "ff": 735,
      "tal": 736,
      "love": 737,
      "nt": 738,
      "sp": 739,
      "ber": 740,
      "careful": 741,
      "share": 742,
      "tow": 743,
      "col": 744,
      "ial": 745,
      "flew": 746,
      "anymore": 747,
      "com": 748,
      "special": 749,
      "ion": 750,
      "lots": 751,
      "lf": 752,
      "per": 753,
      "where": 754,
      "don": 755,
      "wind": 756,
      "give": 757,
      "book": 758,
      "Every": 759,
      "safe": 760,
      "lad": 761,
      "clean": 762,
      "That": 763,
      "ground": 764,
      "even": 765,
      "ople": 766,
      "mag": 767,
      "over": 768,
      "cake": 769,
      "ass": 770,
      "shiny": 771,
      "udden": 772,
      "turn": 773,
      "fam": 774,
      "bad": 775,
      "after": 776,
      "Do": 777,
      "uddenly": 778,
      "people": 779,
      "proud": 780,
      "rabb": 781,
      "ever": 782,
      "door": 783,
      "surprised": 784,
      "high": 785,
      "hurt": 786,
      "pected": 787,
      "gard": 788,
      "garden": 789,
      "opened": 790,
      "picked": 791,
      "loud": 792,
      "clim": 793,
      "far": 794,
      "nexpected": 795,
      "unexpected": 796,
      "fo": 797,
      "bea": 798,
      "hard": 799,
      "app": 800,
      "What": 801,
      "place": 802,
      "unt": 803,
      "color": 804,
      "thanked": 805,
      "blue": 806,
      "still": 807,
      "ear": 808,
      "hugged": 809,
      "ct": 810,
      "call": 811,
      "No": 812,
      "off": 813,
      "mor": 814,
      "ough": 815,
      "magic": 816,
      "ummy": 817,
      "Wh": 818,
      "jumped": 819,
      "Jo": 820,
      "should": 821,
      "family": 822,
      "kid": 823,
      "walk": 824,
      "ool": 825,
      "smile": 826,
      "squ": 827,
      "rog": 828,
      "cha": 829,
      "imp": 830,
      "uff": 831,
      "rel": 832,
      "great": 833,
      "Suddenly": 834,
      "bra": 835,
      "stay": 836,
      "strong": 837,
      "ark": 838,
      "forest": 839,
      "tru": 840,
      "dan": 841,
      "itty": 842,
      "ture": 843,
      "sl": 844,
      "ble": 845,
      "frog": 846,
      "until": 847,
      "Sally": 848,
      "beaut": 849,
      "stick": 850,
      "dy": 851,
      "boat": 852,
      "ort": 853,
      "ning": 854,
      "ess": 855,
      "next": 856,
      "lease": 857,
      "This": 858,
      "Kitty": 859,
      "After": 860,
      "pt": 861,
      "happily": 862,
      "listen": 863,
      "ched": 864,
      "kids": 865,
      "beauti": 866,
      "beautiful": 867,
      "sed": 868,
      "helped": 869,
      "yes": 870,
      "showed": 871,
      "while": 872,
      "unny": 873,
      "story": 874,
      "town": 875,
      "cu": 876,
      "keep": 877,
      "At": 878,
      "picture": 879,
      "oft": 880,
      "ree": 881,
      "ste": 882,
      "lly": 883,
      "being": 884,
      "ak": 885,
      "met": 886,
      "everyone": 887,
      "ip": 888,
      "raw": 889,
      "called": 890,
      "les": 891,
      "stopped": 892,
      "game": 893,
      "Now": 894,
      "Fin": 895,
      "sing": 896,
      "angry": 897,
      "joy": 898,
      "uffy": 899,
      "open": 900,
      "ane": 901,
      "truck": 902,
      "luffy": 903,
      "soft": 904,
      "yummy": 905,
      "cry": 906,
      "lost": 907,
      "Jack": 908,
      "vent": 909,
      "warm": 910,
      "ild": 911,
      "ask": 912,
      "brave": 913,
      "work": 914,
      "mouse": 915,
      "ond": 916,
      "won": 917,
      "ished": 918,
      "watch": 919,
      "couldn": 920,
      "doll": 921,
      "face": 922,
      "leave": 923,
      "flower": 924,
      "also": 925,
      "fell": 926,
      "flowers": 927,
      "green": 928,
      "mon": 929,
      "llo": 930,
      "two": 931,
      "laugh": 932,
      "less": 933,
      "lock": 934,
      "gan": 935,
      "Look": 936,
      "noise": 937,
      "irst": 938,
      "owl": 939,
      "right": 940,
      "store": 941,
      "cream": 942,
      "soon": 943,
      "self": 944,
      "top": 945,
      "slide": 946,
      "ser": 947,
      "hole": 948,
      "Hi": 949,
      "Fluffy": 950,
      "iz": 951,
      "sat": 952,
      "before": 953,
      "irrel": 954,
      "key": 955,
      "ung": 956,
      "ired": 957,
      "illy": 958,
      "hear": 959,
      "race": 960,
      "table": 961,
      "kept": 962,
      "yard": 963,
      "nodd": 964,
      "squirrel": 965,
      "tor": 966,
      "nodded": 967,
      "used": 968,
      "swing": 969,
      "expl": 970,
      "birds": 971,
      "vo": 972,
      "rabbit": 973,
      "having": 974,
      "pain": 975,
      "hands": 976,
      "mber": 977,
      "set": 978,
      "going": 979,
      "tr": 980,
      "looking": 981,
      "Don": 982,
      "funny": 983,
      "rest": 984,
      "head": 985,
      "aybe": 986,
      "uch": 987,
      "catch": 988,
      "ught": 989,
      "fin": 990,
      "shed": 991,
      "yell": 992,
      "think": 993,
      "leep": 994,
      "fix": 995,
      "lled": 996,
      "sn": 997,
      "ting": 998,
      "tired": 999,
      "bunny": 1000,
      "ama": 1001,
      "wr": 1002,
      "ries": 1003,
      "night": 1004,
      "thr": 1005,
      "kit": 1006,
      "tell": 1007,
      "sound": 1008,
      "member": 1009,
      "has": 1010,
      "mean": 1011,
      "cook": 1012,
      "cold": 1013,
      "Why": 1014,
      "pond": 1015,
      "sunny": 1016,
      "others": 1017,
      "talk": 1018,
      "flo": 1019,
      "chen": 1020,
      "ds": 1021,
      "kitchen": 1022,
      "wait": 1023
    },
    "merges": [
      [
        "h",
        "e"
      ],
      [
        "a",
        "n"
      ],
      [
        "t",
        "he"
      ],
      [
        "e",
        "d"
      ],
      [
        "t",
        "o"
      ],
      [
        "an",
        "d"
      ],
      [
        "i",
        "n"
      ],
      [
        "r",
        "e"
      ],
      [
        "i",
        "t"
      ],
      [
        "w",
        "a"
      ],
      [
        "o",
        "u"
      ],
      [
        "h",
        "a"
      ],
      [
        "T",
        "he"
      ],
      [
        "e",
        "r"
      ],
      [
        "wa",
        "s"
      ],
      [
        "a",
        "y"
      ],
      [
        "e",
        "n"
      ],
      [
        "o",
        "m"
      ],
      [
        "i",
        "s"
      ],
      [
        "a",
        "r"
      ],
      [
        "o",
        "n"
      ],
      [
        "i",
        "m"
      ],
      [
        "s",
        "a"
      ],
      [
        "i",
        "d"
      ],
      [
        "l",
        "l"
      ],
      [
        "l",
        "e"
      ],
      [
        "in",
        "g"
      ],
      [
        "s",
        "t"
      ],
      [
        "o",
        "t"
      ],
      [
        "a",
        "m"
      ],
      [
        "o",
        "r"
      ],
      [
        "i",
        "r"
      ],
      [
        "n",
        "e"
      ],
      [
        "The",
        "y"
      ],
      [
        "p",
        "l"
      ],
      [
        "i",
        "g"
      ],
      [
        "a",
        "t"
      ],
      [
        "H",
        "e"
      ],
      [
        "b",
        "e"
      ],
      [
        "i",
        "l"
      ],
      [
        "l",
        "o"
      ],
      [
        "a",
        "ll"
      ],
      [
        "r",
        "i"
      ],
      [
        "v",
        "er"
      ],
      [
        "h",
        "is"
      ],
      [
        "d",
        "ay"
      ],
      [
        "u",
        "t"
      ],
      [
        "pl",
        "ay"
      ],
      [
        "sa",
        "id"
      ],
      [
        "T",
        "im"
      ],
      [
        "it",
        "h"
      ],
      [
        "s",
        "e"
      ],
      [
        "w",
        "ith"
      ],
      [
        "p",
        "p"
      ],
      [
        "he",
        "r"
      ],
      [
        "k",
        "ed"
      ],
      [
        "o",
        "w"
      ],
      [
        "c",
        "e"
      ],
      [
        "u",
        "n"
      ],
      [
        "k",
        "e"
      ],
      [
        "S",
        "he"
      ],
      [
        "ha",
        "t"
      ],
      [
        "l",
        "d"
      ],
      [
        "t",
        "h"
      ],
      [
        "b",
        "ig"
      ],
      [
        "en",
        "d"
      ],
      [
        "y",
        "ou"
      ],
      [
        "ver",
        "y"
      ],
      [
        "t",
        "ed"
      ],
      [
        "v",
        "e"
      ],
      [
        "l",
        "i"
      ],
      [
        "c",
        "k"
      ],
      [
        "w",
        "e"
      ],
      [
        "ha",
        "pp"
      ],
      [
        "o",
        "f"
      ],
      [
        "ri",
        "end"
      ],
      [
        "f",
        "riend"
      ],
      [
        "u",
        "p"
      ],
      [
        "il",
        "y"
      ],
      [
        "the",
        "y"
      ],
      [
        "ha",
        "d"
      ],
      [
        "a",
        "d"
      ],
      [
        "n",
        "ot"
      ],
      [
        "w",
        "an"
      ],
      [
        "g",
        "e"
      ],
      [
        "it",
        "t"
      ],
      [
        "om",
        "e"
      ],
      [
        "the",
        "r"
      ],
      [
        "d",
        "o"
      ],
      [
        "n",
        "d"
      ],
      [
        "b",
        "o"
      ],
      [
        "a",
        "l"
      ],
      [
        "happ",
        "y"
      ],
      [
        "c",
        "h"
      ],
      [
        "L",
        "ily"
      ],
      [
        "en",
        "t"
      ],
      [
        "f",
        "or"
      ],
      [
        "t",
        "hat"
      ],
      [
        "sa",
        "w"
      ],
      [
        "s",
        "he"
      ],
      [
        "O",
        "ne"
      ],
      [
        "ou",
        "ld"
      ],
      [
        "m",
        "om"
      ],
      [
        "itt",
        "le"
      ],
      [
        "l",
        "ittle"
      ],
      [
        "im",
        "e"
      ],
      [
        "a",
        "s"
      ],
      [
        "s",
        "o"
      ],
      [
        "T",
        "om"
      ],
      [
        "t",
        "ime"
      ],
      [
        "r",
        "o"
      ],
      [
        "f",
        "e"
      ],
      [
        "n",
        "am"
      ],
      [
        ".",
        "\""
      ],
      [
        "ou",
        "nd"
      ],
      [
        "e",
        "s"
      ],
      [
        "the",
        "re"
      ],
      [
        "o",
        "o"
      ],
      [
        "nam",
        "ed"
      ],
      [
        "s",
        "m"
      ],
      [
        "we",
        "re"
      ],
      [
        "I",
        "t"
      ],
      [
        "wan",
        "ted"
      ],
      [
        "b",
        "ut"
      ],
      [
        "friend",
        "s"
      ],
      [
        "v",
        "ed"
      ],
      [
        "!",
        "\""
      ],
      [
        "h",
        "t"
      ],
      [
        "ir",
        "d"
      ],
      [
        "s",
        "h"
      ],
      [
        "r",
        "y"
      ],
      [
        "a",
        "re"
      ],
      [
        "b",
        "ird"
      ],
      [
        "to",
        "o"
      ],
      [
        "r",
        "a"
      ],
      [
        "O",
        "n"
      ],
      [
        "m",
        "y"
      ],
      [
        "ou",
        "t"
      ],
      [
        "u",
        "g"
      ],
      [
        "a",
        "ke"
      ],
      [
        "id",
        "e"
      ],
      [
        "l",
        "p"
      ],
      [
        "t",
        "er"
      ],
      [
        "w",
        "ent"
      ],
      [
        "On",
        "ce"
      ],
      [
        "c",
        "ar"
      ],
      [
        "lo",
        "o"
      ],
      [
        "u",
        "e"
      ],
      [
        "he",
        "lp"
      ],
      [
        "up",
        "on"
      ],
      [
        "th",
        "ing"
      ],
      [
        "in",
        "d"
      ],
      [
        "f",
        "un"
      ],
      [
        "to",
        "y"
      ],
      [
        "i",
        "ll"
      ],
      [
        "am",
        "e"
      ],
      [
        "d",
        "id"
      ],
      [
        "l",
        "y"
      ],
      [
        "ge",
        "ther"
      ],
      [
        "p",
        "e"
      ],
      [
        "u",
        "r"
      ],
      [
        "wa",
        "y"
      ],
      [
        "s",
        "ome"
      ],
      [
        "on",
        "e"
      ],
      [
        "c",
        "at"
      ],
      [
        "m",
        "e"
      ],
      [
        "to",
        "gether"
      ],
      [
        "o",
        "re"
      ],
      [
        "t",
        "re"
      ],
      [
        "a",
        "ck"
      ],
      [
        "a",
        "g"
      ],
      [
        "ne",
        "w"
      ],
      [
        "c",
        "an"
      ],
      [
        "do",
        "g"
      ],
      [
        "c",
        "ame"
      ],
      [
        "c",
        "ould"
      ],
      [
        "oo",
        "d"
      ],
      [
        "the",
        "ir"
      ],
      [
        "b",
        "all"
      ],
      [
        "i",
        "c"
      ],
      [
        "p",
        "ar"
      ],
      [
        "g",
        "ir"
      ],
      [
        "play",
        "ed"
      ],
      [
        "h",
        "im"
      ],
      [
        "B",
        "ut"
      ],
      [
        "?",
        "\""
      ],
      [
        "gir",
        "l"
      ],
      [
        "g",
        "o"
      ],
      [
        "f",
        "u"
      ],
      [
        "h",
        "o"
      ],
      [
        "m",
        "an"
      ],
      [
        "the",
        "m"
      ],
      [
        "he",
        "n"
      ],
      [
        "u",
        "m"
      ],
      [
        "a",
        "x"
      ],
      [
        "sa",
        "d"
      ],
      [
        "S",
        "ue"
      ],
      [
        "r",
        "om"
      ],
      [
        "bo",
        "y"
      ],
      [
        "ha",
        "ve"
      ],
      [
        "tre",
        "e"
      ],
      [
        "M",
        "ax"
      ],
      [
        "lo",
        "ved"
      ],
      [
        "loo",
        "ked"
      ],
      [
        "ou",
        "g"
      ],
      [
        "he",
        "d"
      ],
      [
        "f",
        "ound"
      ],
      [
        "st",
        "ar"
      ],
      [
        "a",
        "b"
      ],
      [
        "s",
        "ide"
      ],
      [
        "o",
        "ther"
      ],
      [
        "b",
        "ack"
      ],
      [
        "B",
        "en"
      ],
      [
        "l",
        "a"
      ],
      [
        "l",
        "t"
      ],
      [
        "par",
        "k"
      ],
      [
        "li",
        "ke"
      ],
      [
        "a",
        "in"
      ],
      [
        "S",
        "am"
      ],
      [
        "fu",
        "l"
      ],
      [
        "ow",
        "n"
      ],
      [
        "d",
        "e"
      ],
      [
        "o",
        "p"
      ],
      [
        "p",
        "r"
      ],
      [
        "e",
        "t"
      ],
      [
        "on",
        "g"
      ],
      [
        "ig",
        "ht"
      ],
      [
        "n",
        "o"
      ],
      [
        "p",
        "ot"
      ],
      [
        "f",
        "a"
      ],
      [
        "r",
        "an"
      ],
      [
        "li",
        "ked"
      ],
      [
        "w",
        "ould"
      ],
      [
        "s",
        "to"
      ],
      [
        "c",
        "o"
      ],
      [
        "m",
        "ake"
      ],
      [
        "fe",
        "lt"
      ],
      [
        "Y",
        "ou"
      ],
      [
        "se",
        "e"
      ],
      [
        "n",
        "ow"
      ],
      [
        "wan",
        "t"
      ],
      [
        "as",
        "ked"
      ],
      [
        "ou",
        "se"
      ],
      [
        "ar",
        "d"
      ],
      [
        "c",
        "a"
      ],
      [
        "star",
        "ted"
      ],
      [
        "oug",
        "ht"
      ],
      [
        "il",
        "ed"
      ],
      [
        "i",
        "ce"
      ],
      [
        "g",
        "ood"
      ],
      [
        "sm",
        "all"
      ],
      [
        "w",
        "or"
      ],
      [
        "sm",
        "iled"
      ],
      [
        "m",
        "ore"
      ],
      [
        "s",
        "ay"
      ],
      [
        "ri",
        "ed"
      ],
      [
        "e",
        "x"
      ],
      [
        "m",
        "ad"
      ],
      [
        "s",
        "car"
      ],
      [
        "r",
        "ed"
      ],
      [
        "g",
        "r"
      ],
      [
        "S",
        "pot"
      ],
      [
        "p",
        "ut"
      ],
      [
        "k",
        "ing"
      ],
      [
        "f",
        "ind"
      ],
      [
        "M",
        "om"
      ],
      [
        "t",
        "y"
      ],
      [
        "h",
        "ome"
      ],
      [
        "a",
        "way"
      ],
      [
        "w",
        "hat"
      ],
      [
        "some",
        "thing"
      ],
      [
        "f",
        "rom"
      ],
      [
        "mad",
        "e"
      ],
      [
        "u",
        "c"
      ],
      [
        "th",
        "ought"
      ],
      [
        "en",
        "ed"
      ],
      [
        "s",
        "ha"
      ],
      [
        "play",
        "ing"
      ],
      [
        "i",
        "a"
      ],
      [
        "wa",
        "l"
      ],
      [
        "e",
        "very"
      ],
      [
        "a",
        "ch"
      ],
      [
        "m",
        "u"
      ],
      [
        "ar",
        "n"
      ],
      [
        "M",
        "ia"
      ],
      [
        "i",
        "le"
      ],
      [
        "bo",
        "x"
      ],
      [
        "ag",
        "ain"
      ],
      [
        "h",
        "ouse"
      ],
      [
        "la",
        "ug"
      ],
      [
        "re",
        "t"
      ],
      [
        "d",
        "own"
      ],
      [
        "u",
        "se"
      ],
      [
        "too",
        "k"
      ],
      [
        "scar",
        "ed"
      ],
      [
        "le",
        "arn"
      ],
      [
        "n",
        "y"
      ],
      [
        "u",
        "re"
      ],
      [
        "toy",
        "s"
      ],
      [
        "ge",
        "t"
      ],
      [
        "s",
        "s"
      ],
      [
        "w",
        "ill"
      ],
      [
        "g",
        "ot"
      ],
      [
        "d",
        "d"
      ],
      [
        "ar",
        "ound"
      ],
      [
        "thing",
        "s"
      ],
      [
        "is",
        "h"
      ],
      [
        "you",
        "r"
      ],
      [
        "ou",
        "d"
      ],
      [
        "li",
        "ved"
      ],
      [
        "e",
        "l"
      ],
      [
        "i",
        "ck"
      ],
      [
        "lo",
        "w"
      ],
      [
        "l",
        "ot"
      ],
      [
        "a",
        "ve"
      ],
      [
        "pe",
        "c"
      ],
      [
        "the",
        "n"
      ],
      [
        "s",
        "un"
      ],
      [
        "e",
        "p"
      ],
      [
        "S",
        "o"
      ],
      [
        "d",
        "er"
      ],
      [
        ",",
        "\""
      ],
      [
        "w",
        "hen"
      ],
      [
        "o",
        "b"
      ],
      [
        "pp",
        "ed"
      ],
      [
        "i",
        "e"
      ],
      [
        "n",
        "a"
      ],
      [
        "b",
        "ot"
      ],
      [
        "r",
        "u"
      ],
      [
        "L",
        "uc"
      ],
      [
        "Luc",
        "y"
      ],
      [
        "i",
        "f"
      ],
      [
        "t",
        "e"
      ],
      [
        "an",
        "t"
      ],
      [
        "ro",
        "om"
      ],
      [
        "t",
        "ried"
      ],
      [
        "k",
        "now"
      ],
      [
        "say",
        "s"
      ],
      [
        "um",
        "p"
      ],
      [
        "it",
        "ed"
      ],
      [
        "w",
        "ho"
      ],
      [
        "an",
        "y"
      ],
      [
        "man",
        "y"
      ],
      [
        "p",
        "ic"
      ],
      [
        "ab",
        "out"
      ],
      [
        "u",
        "s"
      ],
      [
        "c",
        "are"
      ],
      [
        "p",
        "ret"
      ],
      [
        "de",
        "c"
      ],
      [
        "W",
        "e"
      ],
      [
        "b",
        "y"
      ],
      [
        "k",
        "new"
      ],
      [
        "ou",
        "s"
      ],
      [
        "is",
        "e"
      ],
      [
        "all",
        "y"
      ],
      [
        "p",
        "u"
      ],
      [
        "is",
        "t"
      ],
      [
        "way",
        "s"
      ],
      [
        "q",
        "u"
      ],
      [
        "learn",
        "ed"
      ],
      [
        "at",
        "e"
      ],
      [
        "wa",
        "ter"
      ],
      [
        "an",
        "k"
      ],
      [
        "A",
        "nd"
      ],
      [
        "f",
        "ter"
      ],
      [
        "be",
        "came"
      ],
      [
        "be",
        "st"
      ],
      [
        "i",
        "ve"
      ],
      [
        "u",
        "st"
      ],
      [
        "g",
        "re"
      ],
      [
        "l",
        "ong"
      ],
      [
        "ne",
        "x"
      ],
      [
        "b",
        "l"
      ],
      [
        "ex",
        "c"
      ],
      [
        "ca",
        "use"
      ],
      [
        "out",
        "side"
      ],
      [
        "laug",
        "hed"
      ],
      [
        "m",
        "o"
      ],
      [
        "loo",
        "k"
      ],
      [
        "al",
        "ways"
      ],
      [
        "he",
        "re"
      ],
      [
        "dec",
        "id"
      ],
      [
        "sh",
        "ow"
      ],
      [
        "e",
        "at"
      ],
      [
        "it",
        "e"
      ],
      [
        "decid",
        "ed"
      ],
      [
        "be",
        "cause"
      ],
      [
        "f",
        "ore"
      ],
      [
        "c",
        "l"
      ],
      [
        "in",
        "to"
      ],
      [
        "p",
        "o"
      ],
      [
        "c",
        "le"
      ],
      [
        "an",
        "g"
      ],
      [
        "L",
        "et"
      ],
      [
        "j",
        "ump"
      ],
      [
        "bot",
        "h"
      ],
      [
        "The",
        "n"
      ],
      [
        "r",
        "un"
      ],
      [
        "h",
        "ug"
      ],
      [
        "er",
        "s"
      ],
      [
        "d",
        "ad"
      ],
      [
        "m",
        "a"
      ],
      [
        "o",
        "k"
      ],
      [
        "A",
        "n"
      ],
      [
        "fa",
        "st"
      ],
      [
        "s",
        "ur"
      ],
      [
        "c",
        "lo"
      ],
      [
        "W",
        "hen"
      ],
      [
        "t",
        "his"
      ],
      [
        "exc",
        "ited"
      ],
      [
        "n",
        "ice"
      ],
      [
        "fe",
        "el"
      ],
      [
        "Y",
        "es"
      ],
      [
        "s",
        "or"
      ],
      [
        "w",
        "h"
      ],
      [
        "b",
        "b"
      ],
      [
        "p",
        "a"
      ],
      [
        "o",
        "ld"
      ],
      [
        "b",
        "u"
      ],
      [
        "in",
        "k"
      ],
      [
        "to",
        "ld"
      ],
      [
        "s",
        "k"
      ],
      [
        "c",
        "ome"
      ],
      [
        "B",
        "ob"
      ],
      [
        "b",
        "r"
      ],
      [
        "in",
        "side"
      ],
      [
        "f",
        "ish"
      ],
      [
        "sur",
        "pr"
      ],
      [
        "H",
        "is"
      ],
      [
        "in",
        "y"
      ],
      [
        "oo",
        "k"
      ],
      [
        "pret",
        "ty"
      ],
      [
        "f",
        "ly"
      ],
      [
        "ar",
        "a"
      ],
      [
        "g",
        "ave"
      ],
      [
        "t",
        "ake"
      ],
      [
        "t",
        "a"
      ],
      [
        "ou",
        "r"
      ],
      [
        "le",
        "t"
      ],
      [
        "e",
        "ach"
      ],
      [
        "j",
        "o"
      ],
      [
        "mu",
        "ch"
      ],
      [
        "it",
        "s"
      ],
      [
        "h",
        "ow"
      ],
      [
        "An",
        "na"
      ],
      [
        "le",
        "w"
      ],
      [
        "un",
        "der"
      ],
      [
        "im",
        "al"
      ],
      [
        "an",
        "imal"
      ],
      [
        "A",
        "my"
      ],
      [
        "u",
        "dd"
      ],
      [
        "ne",
        "ed"
      ],
      [
        "th",
        "an"
      ],
      [
        "v",
        "en"
      ],
      [
        "ab",
        "le"
      ],
      [
        "a",
        "c"
      ],
      [
        "f",
        "low"
      ],
      [
        "A",
        "s"
      ],
      [
        "ha",
        "r"
      ],
      [
        "sor",
        "ry"
      ],
      [
        "s",
        "w"
      ],
      [
        "e",
        "ll"
      ],
      [
        "u",
        "ck"
      ],
      [
        "C",
        "an"
      ],
      [
        "T",
        "h"
      ],
      [
        "S",
        "ara"
      ],
      [
        "g",
        "ed"
      ],
      [
        "is",
        "ed"
      ],
      [
        "ro",
        "ck"
      ],
      [
        "d",
        "re"
      ],
      [
        "Th",
        "ank"
      ],
      [
        "wal",
        "ked"
      ],
      [
        "ur",
        "t"
      ],
      [
        "be",
        "ar"
      ],
      [
        "re",
        "ad"
      ],
      [
        "h",
        "and"
      ],
      [
        "le",
        "a"
      ],
      [
        "ur",
        "n"
      ],
      [
        "k",
        "ind"
      ],
      [
        "ra",
        "in"
      ],
      [
        "t",
        "ry"
      ],
      [
        "j",
        "ust"
      ],
      [
        "happ",
        "ened"
      ],
      [
        "st",
        "r"
      ],
      [
        "H",
        "er"
      ],
      [
        "l",
        "ist"
      ],
      [
        "f",
        "ood"
      ],
      [
        "be",
        "t"
      ],
      [
        "did",
        "n"
      ],
      [
        "ig",
        "h"
      ],
      [
        "f",
        "i"
      ],
      [
        "animal",
        "s"
      ],
      [
        "wa",
        "r"
      ],
      [
        "s",
        "pec"
      ],
      [
        "I",
        "n"
      ],
      [
        "wa",
        "t"
      ],
      [
        "ne",
        "ar"
      ],
      [
        "sk",
        "y"
      ],
      [
        "in",
        "e"
      ],
      [
        "c",
        "re"
      ],
      [
        "v",
        "ing"
      ],
      [
        "b",
        "ug"
      ],
      [
        "F",
        "rom"
      ],
      [
        "ide",
        "a"
      ],
      [
        "bet",
        "ter"
      ],
      [
        "he",
        "ard"
      ],
      [
        "ne",
        "ver"
      ],
      [
        "ke",
        "t"
      ],
      [
        "c",
        "he"
      ],
      [
        "t",
        "w"
      ],
      [
        "b",
        "ro"
      ],
      [
        "b",
        "ed"
      ],
      [
        "pl",
        "a"
      ],
      [
        "f",
        "f"
      ],
      [
        "t",
        "al"
      ],
      [
        "lo",
        "ve"
      ],
      [
        "n",
        "t"
      ],
      [
        "s",
        "p"
      ],
      [
        "b",
        "er"
      ],
      [
        "care",
        "ful"
      ],
      [
        "sha",
        "re"
      ],
      [
        "to",
        "w"
      ],
      [
        "co",
        "l"
      ],
      [
        "i",
        "al"
      ],
      [
        "f",
        "lew"
      ],
      [
        "any",
        "more"
      ],
      [
        "c",
        "om"
      ],
      [
        "spec",
        "ial"
      ],
      [
        "i",
        "on"
      ],
      [
        "lot",
        "s"
      ],
      [
        "l",
        "f"
      ],
      [
        "p",
        "er"
      ],
      [
        "w",
        "here"
      ],
      [
        "d",
        "on"
      ],
      [
        "w",
        "ind"
      ],
      [
        "g",
        "ive"
      ],
      [
        "bo",
        "ok"
      ],
      [
        "E",
        "very"
      ],
      [
        "sa",
        "fe"
      ],
      [
        "l",
        "ad"
      ],
      [
        "cle",
        "an"
      ],
      [
        "T",
        "hat"
      ],
      [
        "gr",
        "ound"
      ],
      [
        "e",
        "ven"
      ],
      [
        "op",
        "le"
      ],
      [
        "m",
        "ag"
      ],
      [
        "o",
        "ver"
      ],
      [
        "c",
        "ake"
      ],
      [
        "as",
        "s"
      ],
      [
        "sh",
        "iny"
      ],
      [
        "udd",
        "en"
      ],
      [
        "t",
        "urn"
      ],
      [
        "f",
        "am"
      ],
      [
        "b",
        "ad"
      ],
      [
        "a",
        "fter"
      ],
      [
        "D",
        "o"
      ],
      [
        "udden",
        "ly"
      ],
      [
        "pe",
        "ople"
      ],
      [
        "pr",
        "oud"
      ],
      [
        "ra",
        "bb"
      ],
      [
        "e",
        "ver"
      ],
      [
        "do",
        "or"
      ],
      [
        "surpr",
        "ised"
      ],
      [
        "h",
        "igh"
      ],
      [
        "h",
        "urt"
      ],
      [
        "pec",
        "ted"
      ],
      [
        "g",
        "ard"
      ],
      [
        "gard",
        "en"
      ],
      [
        "op",
        "ened"
      ],
      [
        "pic",
        "ked"
      ],
      [
        "l",
        "oud"
      ],
      [
        "cl",
        "im"
      ],
      [
        "f",
        "ar"
      ],
      [
        "nex",
        "pected"
      ],
      [
        "u",
        "nexpected"
      ],
      [
        "f",
        "o"
      ],
      [
        "be",
        "a"
      ],
      [
        "har",
        "d"
      ],
      [
        "a",
        "pp"
      ],
      [
        "W",
        "hat"
      ],
      [
        "pla",
        "ce"
      ],
      [
        "un",
        "t"
      ],
      [
        "col",
        "or"
      ],
      [
        "than",
        "ked"
      ],
      [
        "bl",
        "ue"
      ],
      [
        "st",
        "ill"
      ],
      [
        "e",
        "ar"
      ],
      [
        "hug",
        "ged"
      ],
      [
        "c",
        "t"
      ],
      [
        "c",
        "all"
      ],
      [
        "N",
        "o"
      ],
      [
        "of",
        "f"
      ],
      [
        "m",
        "or"
      ],
      [
        "oug",
        "h"
      ],
      [
        "mag",
        "ic"
      ],
      [
        "um",
        "my"
      ],
      [
        "W",
        "h"
      ],
      [
        "jump",
        "ed"
      ],
      [
        "J",
        "o"
      ],
      [
        "sh",
        "ould"
      ],
      [
        "fam",
        "ily"
      ],
      [
        "k",
        "id"
      ],
      [
        "wal",
        "k"
      ],
      [
        "oo",
        "l"
      ],
      [
        "sm",
        "ile"
      ],
      [
        "s",
        "qu"
      ],
      [
        "ro",
        "g"
      ],
      [
        "c",
        "ha"
      ],
      [
        "im",
        "p"
      ],
      [
        "u",
        "ff"
      ],
      [
        "re",
        "l"
      ],
      [
        "gre",
        "at"
      ],
      [
        "S",
        "uddenly"
      ],
      [
        "b",
        "ra"
      ],
      [
        "st",
        "ay"
      ],
      [
        "str",
        "ong"
      ],
      [
        "ar",
        "k"
      ],
      [
        "fore",
        "st"
      ],
      [
        "t",
        "ru"
      ],
      [
        "d",
        "an"
      ],
      [
        "itt",
        "y"
      ],
      [
        "t",
        "ure"
      ],
      [
        "s",
        "l"
      ],
      [
        "b",
        "le"
      ],
      [
        "f",
        "rog"
      ],
      [
        "unt",
        "il"
      ],
      [
        "S",
        "ally"
      ],
      [
        "bea",
        "ut"
      ],
      [
        "st",
        "ick"
      ],
      [
        "d",
        "y"
      ],
      [
        "bo",
        "at"
      ],
      [
        "or",
        "t"
      ],
      [
        "n",
        "ing"
      ],
      [
        "es",
        "s"
      ],
      [
        "nex",
        "t"
      ],
      [
        "lea",
        "se"
      ],
      [
        "T",
        "his"
      ],
      [
        "K",
        "itty"
      ],
      [
        "A",
        "fter"
      ],
      [
        "p",
        "t"
      ],
      [
        "happ",
        "ily"
      ],
      [
        "list",
        "en"
      ],
      [
        "c",
        "hed"
      ],
      [
        "kid",
        "s"
      ],
      [
        "beaut",
        "i"
      ],
      [
        "beauti",
        "ful"
      ],
      [
        "s",
        "ed"
      ],
      [
        "help",
        "ed"
      ],
      [
        "y",
        "es"
      ],
      [
        "show",
        "ed"
      ],
      [
        "wh",
        "ile"
      ],
      [
        "un",
        "ny"
      ],
      [
        "sto",
        "ry"
      ],
      [
        "tow",
        "n"
      ],
      [
        "c",
        "u"
      ],
      [
        "ke",
        "ep"
      ],
      [
        "A",
        "t"
      ],
      [
        "pic",
        "ture"
      ],
      [
        "of",
        "t"
      ],
      [
        "re",
        "e"
      ],
      [
        "st",
        "e"
      ],
      [
        "ll",
        "y"
      ],
      [
        "be",
        "ing"
      ],
      [
        "a",
        "k"
      ],
      [
        "me",
        "t"
      ],
      [
        "every",
        "one"
      ],
      [
        "i",
        "p"
      ],
      [
        "ra",
        "w"
      ],
      [
        "call",
        "ed"
      ],
      [
        "le",
        "s"
      ],
      [
        "sto",
        "pped"
      ],
      [
        "g",
        "ame"
      ],
      [
        "N",
        "ow"
      ],
      [
        "F",
        "in"
      ],
      [
        "s",
        "ing"
      ],
      [
        "ang",
        "ry"
      ],
      [
        "jo",
        "y"
      ],
      [
        "uff",
        "y"
      ],
      [
        "op",
        "en"
      ],
      [
        "an",
        "e"
      ],
      [
        "tru",
        "ck"
      ],
      [
        "l",
        "uffy"
      ],
      [
        "s",
        "oft"
      ],
      [
        "y",
        "ummy"
      ],
      [
        "c",
        "ry"
      ],
      [
        "lo",
        "st"
      ],
      [
        "J",
        "ack"
      ],
      [
        "v",
        "ent"
      ],
      [
        "war",
        "m"
      ],
      [
        "il",
        "d"
      ],
      [
        "as",
        "k"
      ],
      [
        "bra",
        "ve"
      ],
      [
        "wor",
        "k"
      ],
      [
        "m",
        "ouse"
      ],
      [
        "on",
        "d"
      ],
      [
        "w",
        "on"
      ],
      [
        "is",
        "hed"
      ],
      [
        "wat",
        "ch"
      ],
      [
        "could",
        "n"
      ],
      [
        "do",
        "ll"
      ],
      [
        "fa",
        "ce"
      ],
      [
        "le",
        "ave"
      ],
      [
        "flow",
        "er"
      ],
      [
        "al",
        "so"
      ],
      [
        "fe",
        "ll"
      ],
      [
        "flow",
        "ers"
      ],
      [
        "gre",
        "en"
      ],
      [
        "m",
        "on"
      ],
      [
        "ll",
        "o"
      ],
      [
        "tw",
        "o"
      ],
      [
        "laug",
        "h"
      ],
      [
        "le",
        "ss"
      ],
      [
        "lo",
        "ck"
      ],
      [
        "g",
        "an"
      ],
      [
        "L",
        "ook"
      ],
      [
        "no",
        "ise"
      ],
      [
        "ir",
        "st"
      ],
      [
        "ow",
        "l"
      ],
      [
        "r",
        "ight"
      ],
      [
        "sto",
        "re"
      ],
      [
        "cre",
        "am"
      ],
      [
        "so",
        "on"
      ],
      [
        "se",
        "lf"
      ],
      [
        "to",
        "p"
      ],
      [
        "sl",
        "ide"
      ],
      [
        "s",
        "er"
      ],
      [
        "ho",
        "le"
      ],
      [
        "H",
        "i"
      ],
      [
        "F",
        "luffy"
      ],
      [
        "i",
        "z"
      ],
      [
        "sa",
        "t"
      ],
      [
        "be",
        "fore"
      ],
      [
        "ir",
        "rel"
      ],
      [
        "ke",
        "y"
      ],
      [
        "un",
        "g"
      ],
      [
        "ir",
        "ed"
      ],
      [
        "ill",
        "y"
      ],
      [
        "he",
        "ar"
      ],
      [
        "ra",
        "ce"
      ],
      [
        "t",
        "able"
      ],
      [
        "ke",
        "pt"
      ],
      [
        "y",
        "ard"
      ],
      [
        "no",
        "dd"
      ],
      [
        "squ",
        "irrel"
      ],
      [
        "to",
        "r"
      ],
      [
        "nodd",
        "ed"
      ],
      [
        "us",
        "ed"
      ],
      [
        "sw",
        "ing"
      ],
      [
        "ex",
        "pl"
      ],
      [
        "bird",
        "s"
      ],
      [
        "v",
        "o"
      ],
      [
        "rabb",
        "it"
      ],
      [
        "ha",
        "ving"
      ],
      [
        "p",
        "ain"
      ],
      [
        "hand",
        "s"
      ],
      [
        "m",
        "ber"
      ],
      [
        "se",
        "t"
      ],
      [
        "go",
        "ing"
      ],
      [
        "t",
        "r"
      ],
      [
        "loo",
        "king"
      ],
      [
        "D",
        "on"
      ],
      [
        "fun",
        "ny"
      ],
      [
        "re",
        "st"
      ],
      [
        "he",
        "ad"
      ],
      [
        "ay",
        "be"
      ],
      [
        "u",
        "ch"
      ],
      [
        "cat",
        "ch"
      ],
      [
        "ug",
        "ht"
      ],
      [
        "f",
        "in"
      ],
      [
        "she",
        "d"
      ],
      [
        "y",
        "ell"
      ],
      [
        "th",
        "ink"
      ],
      [
        "le",
        "ep"
      ],
      [
        "fi",
        "x"
      ],
      [
        "ll",
        "ed"
      ],
      [
        "s",
        "n"
      ],
      [
        "t",
        "ing"
      ],
      [
        "t",
        "ired"
      ],
      [
        "b",
        "unny"
      ],
      [
        "am",
        "a"
      ],
      [
        "w",
        "r"
      ],
      [
        "ri",
        "es"
      ],
      [
        "n",
        "ight"
      ],
      [
        "th",
        "r"
      ],
      [
        "k",
        "it"
      ],
      [
        "te",
        "ll"
      ],
      [
        "s",
        "ound"
      ],
      [
        "me",
        "mber"
      ],
      [
        "ha",
        "s"
      ],
      [
        "me",
        "an"
      ],
      [
        "c",
        "ook"
      ],
      [
        "co",
        "ld"
      ],
      [
        "Wh",
        "y"
      ],
      [
        "p",
        "ond"
      ],
      [
        "sun",
        "ny"
      ],
      [
        "other",
        "s"
      ],
      [
        "tal",
        "k"
      ],
      [
        "f",
        "lo"
      ],
      [
        "c",
        "hen"
      ],
      [
        "d",
        "s"
      ],
      [
        "kit",
        "chen"
      ],
      [
        "wa",
        "it"
      ]
    ]
  }
}