{
  "version": "1.0",
  "truncation": null,
  "padding": null,
  "added_tokens": [
    {
      "id": 0,
      "content": "[UNK]",
      "single_word": false,
      "lstrip": false,
      "rstrip": false,
      "normalized": false,
      "special": true
    },
    {
      "id": 1,
      "content": "<eos>",
      "single_word": false,
      "lstrip": false,
      "rstrip": false,
      "normalized": false,
      "special": true
    }
  ],
  "normalizer": null,
  "pre_tokenizer": {
    "type": "Whitespace"
  },
  "post_processor": null,
  "decoder": null,
  "model": {
    "type": "BPE",
    "dropout": null,
    "unk_token": "[UNK]",
    "continuing_subword_prefix": null,
    "end_of_word_suffix": null,
    "fuse_unk": false,
    "byte_fallback": false,
    "ignore_merges": false,
    "vocab": {
      "[UNK]": 0,
      "<eos>": 1,
      "!": 2,
      "\"": 3,
      "#": 4,
      "$": 5,
      "%": 6,
      "&": 7,
      "'": 8,
      "(": 9,
      ")": 10,
      "*": 11,
      "+": 12,
      ",": 13,
      "-": 14,
      ".": 15,
      "/": 16,
      "0": 17,
      "1": 18,
      "2": 19,
      "3": 20,
      "4": 21,
      "5": 22,
      "6": 23,
      "7": 24,
      "8": 25,
      "9": 26,
      ":": 27,
      ";": 28,
      "<": 29,
      "=": 30,
      ">": 31,
      "?": 32,
      "@": 33,
      "A": 34,
      "B": 35,
      "C": 36,
      "D": 37,
      "E": 38,
      "F": 39,
      "G": 40,
      "H": 41,
      "I": 42,
      "J": 43,
      "K": 44,
      "L": 45,
      "M": 46,
      "N": 47,
      "O": 48,
      "P": 49,
      "Q": 50,
      "R": 51,
      "S": 52,
      "T": 53,
      "U": 54,
      "V": 55,
      "W": 56,
      "X": 57,
      "Y": 58,
      "Z": 59,
      "[": 60,
      "\\": 61,
      "]": 62,
      "_": 63,
      "`": 64,
      "a": 65,
      "b": 66,
      "c": 67,
      "d": 68,
      "e": 69,
      "f": 70,
      "g": 71,
      "h": 72,
      "i": 73,
      "j": 74,
      "k": 75,
      "l": 76,
      "m": 77,
      "n": 78,
      "o": 79,
      "p": 80,
      "q": 81,
      "r": 82,
      "s": 83,
      "t": 84,
      "u": 85,
      "v": 86,
      "w": 87,
      "x": 88,
      "y": 89,
      "z": 90,
      "{": 91,
      "|": 92,
      "}": 93,
      "~": 94,
      "": 95,
      "": 96,
      "": 97,
      "¡": 98,
      "¢": 99,
      "£": 100,
      "§": 101,
      "«": 102,
      "­": 103,
      "°": 104,
      "´": 105,
      "·": 106,
      "»": 107,
      "¿": 108,
      "É": 109,
      "ß": 110,
      "à": 111,
      "á": 112,
      "â": 113,
      "è": 114,
      "é": 115,
      "ê": 116,
      "í": 117,
      "ï": 118,
      "ñ": 119,
      "ó": 120,
      "ö": 121,
      "ú": 122,
      "ā": 123,
      "İ": 124,
      "œ": 125,
      "ɪ": 126,
      "ʏ": 127,
      "ʙ": 128,
      "ʜ": 129,
      "і": 130,
      "ғ": 131,
      "ᴀ": 132,
      "ᴄ": 133,
      "ᴅ": 134,
      "ᴇ": 135,
      "ᴏ": 136,
      "ᴛ": 137,
      "ᴜ": 138,
      "ᴡ": 139,
      "ᴢ": 140,
      "​": 141,
      "‌": 142,
      "‎": 143,
      "‐": 144,
      "‑": 145,
      "–": 146,
      "—": 147,
      "―": 148,
      "‘": 149,
      "’": 150,
      "‚": 151,
      "“": 152,
      "”": 153,
      "„": 154,
      "…": 155,
      "‪": 156,
      "€": 157,
      "™": 158,
      "−": 159,
      "─": 160,
      "❤": 161,
      "。": 162,
      "一": 163,
      "了": 164,
      "些": 165,
      "他": 166,
      "但": 167,
      "保": 168,
      "個": 169,
      "們": 170,
      "兒": 171,
      "兩": 172,
      "分": 173,
      "到": 174,
      "剛": 175,
      "又": 176,
      "和": 177,
      "在": 178,
      "天": 179,
      "奮": 180,
      "她": 181,
      "己": 182,
      "巴": 183,
      "度": 184,
      "很": 185,
      "恩": 186,
      "應": 187,
      "把": 188,
      "整": 189,
      "是": 190,
      "時": 191,
      "會": 192,
      "獨": 193,
      "玉": 194,
      "田": 195,
      "留": 196,
      "當": 197,
      "的": 198,
      "童": 199,
      "答": 200,
      "米": 201,
      "給": 202,
      "自": 203,
      "興": 204,
      "艾": 205,
      "莉": 206,
      "裡": 207,
      "這": 208,
      "過": 209,
      "難": 210,
      "高": 211,
      "": 212,
      "": 213,
      "️": 214,
      "﻿": 215,
      "，": 216,
      "�": 217,
      "🌴": 218,
      "🍌": 219,
      "🎓": 220,
      "🤩": 221,
      "he": 222,
      "an": 223,
      "the": 224,
      "ed": 225,
      "to": 226,
      "and": 227,
      "in": 228,
      "re": 229,
      "it": 230,
      "wa": 231,
      "ou": 232,
      "ha": 233,
      "The": 234,
      "er": 235,
      "was": 236,
      "ay": 237,
      "en": 238,
      "om": 239,
      "is": 240,
      "ar": 241,
      "on": 242,
      "im": 243,
      "sa": 244,
      "id": 245,
      "ll": 246,
      "le": 247,
      "ing": 248,
      "st": 249,
      "ot": 250,
      "am": 251,
      "or": 252,
      "ir": 253,
      "ne": 254,
      "They": 255,
      "pl": 256,
      "ig": 257,
      "at": 258,
      "He": 259,
      "be": 260,
      "il": 261,
      "lo": 262,
      "all": 263,
      "ri": 264,
      "ver": 265,
      "his": 266,
      "day": 267,
      "ut": 268,
      "play": 269,
      "said": 270,
      "Tim": 271,
      "ith": 272,
      "se": 273,
      "with": 274,
      "pp": 275,
      "her": 276,
      "ked": 277,
      "ow": 278,
      "ce": 279,
      "un": 280,
      "ke": 281,
      "She": 282,
      "hat": 283,
      "ld": 284,
      "th": 285,
      "big": 286,
      "end": 287,
      "you": 288,
      "very": 289,
      "ted": 290,
      "ve": 291,
      "li": 292,
      "ck": 293,
      "we": 294,
      "happ": 295,
      "of": 296,
      "riend": 297,
      "friend": 298,
      "up": 299,
      "ily": 300,
      "they": 301,
      "had": 302,
      "ad": 303,
      "not": 304,
      "wan": 305,
      "ge": 306,
      "itt": 307,
      "ome": 308,
      "ther": 309,
      "do": 310,
      "nd": 311,
      "bo": 312,
      "al": 313,
      "happy": 314,
      "ch": 315,
      "Lily": 316,
      "ent": 317,
      "for": 318,
      "that": 319,
      "saw": 320,
      "she": 321,
      "One": 322,
      "ould": 323,
      "mom": 324,
      "ittle": 325,
      "little": 326,
      "ime": 327,
      "as": 328,
      "so": 329,
      "Tom": 330,
      "time": 331,
      "ro": 332,
      "fe": 333,
      "nam": 334,
      ".\"": 335,
      "ound": 336,
      "es": 337,
      "there": 338,
      "oo": 339,
      "named": 340,
      "sm": 341,
      "were": 342,
      "It": 343,
      "wanted": 344,
      "but": 345,
      "friends": 346,
      "ved": 347,
      "!\"": 348,
      "ht": 349,
      "ird": 350,
      "sh": 351,
      "ry": 352,
      "are": 353,
      "bird": 354,
      "too": 355,
      "ra": 356,
      "On": 357,
      "my": 358,
      "out": 359,
      "ug": 360,
      "ake": 361,
      "ide": 362,
      "lp": 363,
      "ter": 364,
      "went": 365,
      "Once": 366,
      "car": 367,
      "loo": 368,
      "ue": 369,
      "help": 370,
      "upon": 371,
      "thing": 372,
      "ind": 373,
      "fun": 374,
      "toy": 375,
      "ill": 376,
      "ame": 377,
      "did": 378,
      "ly": 379,
      "gether": 380,
      "pe": 381,
      "ur": 382,
      "way": 383,
      "some": 384,
      "one": 385,
      "cat": 386,
      "me": 387,
      "together": 388,
      "ore": 389,
      "tre": 390,
      "ack": 391,
      "ag": 392,
      "new": 393,
      "can": 394,
      "dog": 395,
      "came": 396,
      "could": 397,
      "ood": 398,
      "their": 399,
      "ball": 400,
      "ic": 401,
      "par": 402,
      "gir": 403,
      "played": 404,
      "him": 405,
      "But": 406,
      "?\"": 407,
      "girl": 408,
      "go": 409,
      "fu": 410,
      "ho": 411,
      "man": 412,
      "them": 413,
      "hen": 414,
      "um": 415,
      "ax": 416,
      "sad": 417,
      "Sue": 418,
      "rom": 419,
      "boy": 420,
      "have": 421,
      "tree": 422,
      "Max": 423,
      "loved": 424,
      "looked": 425,
      "oug": 426,
      "hed": 427,
      "found": 428,
      "star": 429,
      "ab": 430,
      "side": 431,
      "other": 432,
      "back": 433,
      "Ben": 434,
      "la": 435,
      "lt": 436,
      "park": 437,
      "like": 438,
      "ain": 439,
      "Sam": 440,
      "ful": 441,
      "own": 442,
      "de": 443,
      "op": 444,
      "pr": 445,
      "et": 446,
      "ong": 447,
      "ight": 448,
      "no": 449,
      "pot": 450,
      "fa": 451,
      "ran": 452,
      "liked": 453,
      "would": 454,
      "sto": 455,
      "co": 456,
      "make": 457,
      "felt": 458,
      "You": 459,
      "see": 460,
      "now": 461,
      "want": 462,
      "asked": 463,
      "ouse": 464,
      "ard": 465,
      "ca": 466,
      "started": 467,
      "ought": 468,
      "iled": 469,
      "ice": 470,
      "good": 471,
      "small": 472,
      "wor": 473,
      "smiled": 474,
      "more": 475,
      "say": 476,
      "ried": 477,
      "ex": 478,
      "mad": 479,
      "scar": 480,
      "red": 481,
      "gr": 482,
      "Spot": 483,
      "put": 484,
      "king": 485,
      "find": 486,
      "Mom": 487,
      "ty": 488,
      "home": 489,
      "away": 490,
      "what": 491,
      "something": 492,
      "from": 493,
      "made": 494,
      "uc": 495,
      "thought": 496,
      "ened": 497,
      "sha": 498,
      "playing": 499,
      "ia": 500,
      "wal": 501,
      "every": 502,
      "ach": 503,
      "mu": 504,
      "arn": 505,
      "Mia": 506,
      "ile": 507,
      "box": 508,
      "again": 509,
      "house": 510,
      "laug": 511,
      "ret": 512,
      "down": 513,
      "use": 514,
      "took": 515,
      "scared": 516,
      "learn": 517,
      "ny": 518,
      "ure": 519,
      "toys": 520,
      "get": 521,
      "ss": 522,
      "will": 523,
      "got": 524,
      "dd": 525,
      "around": 526,
      "things": 527,
      "ish": 528,
      "your": 529,
      "oud": 530,
      "lived": 531,
      "el": 532,
      "ick": 533,
      "low": 534,
      "lot": 535,
      "ave": 536,
      "pec": 537,
      "then": 538,
      "sun": 539,
      "ep": 540,
      "So": 541,
      "der": 542,
      ",\"": 543,
      "when": 544,
      "ob": 545,
      "pped": 546,
      "ie": 547,
      "na": 548,
      "bot": 549,
      "ru": 550,
      "Luc": 551,
      "Lucy": 552,
      "if": 553,
      "te": 554,
      "ant": 555,
      "room": 556,
      "tried": 557,
      "know": 558,
      "says": 559,
      "ump": 560,
      "ited": 561,
      "who": 562,
      "any": 563,
      "many": 564,
      "pic": 565,
      "about": 566,
      "us": 567,
      "care": 568,
      "pret": 569,
      "dec": 570,
      "We": 571,
      "by": 572,
      "knew": 573,
      "ous": 574,
      "ise": 575,
      "ally": 576,
      "pu": 577,
      "ist": 578,
      "ways": 579,
      "qu": 580,
      "learned": 581,
      "ate": 582,
      "water": 583,
      "ank": 584,
      "And": 585,
      "fter": 586,
      "became": 587,
      "best": 588,
      "ive": 589,
      "ust": 590,
      "gre": 591,
      "long": 592,
      "nex": 593,
      "bl": 594,
      "exc": 595,
      "cause": 596,
      "outside": 597,
      "laughed": 598,
      "mo": 599,
      "look": 600,
      "always": 601,
      "here": 602,
      "decid": 603,
      "show": 604,
      "eat": 605,
      "ite": 606,
      "decided": 607,
      "because": 608,
      "fore": 609,
      "cl": 610,
      "into": 611,
      "po": 612,
      "cle": 613,
      "ang": 614,
      "Let": 615,
      "jump": 616,
      "both": 617,
      "Then": 618,
      "run": 619,
      "hug": 620,
      "ers": 621,
      "dad": 622,
      "ma": 623,
      "ok": 624,
      "An": 625,
      "fast": 626,
      "sur": 627,
      "clo": 628,
      "When": 629,
      "this": 630,
      "excited": 631,
      "nice": 632,
      "feel": 633,
      "Yes": 634,
      "sor": 635,
      "wh": 636,
      "bb": 637,
      "pa": 638,
      "old": 639,
      "bu": 640,
      "ink": 641,
      "told": 642,
      "sk": 643,
      "come": 644,
      "Bob": 645,
      "br": 646,
      "inside": 647,
      "fish": 648,
      "surpr": 649,
      "His": 650,
      "iny": 651,
      "ook": 652,
      "pretty": 653,
      "fly": 654,
      "ara": 655,
      "gave": 656,
      "take": 657,
      "ta": 658,
      "our": 659,
      "let": 660,
      "each": 661,
      "jo": 662,
      "much": 663,
      "its": 664,
      "how": 665,
      "Anna": 666,
      "lew": 667,
      "under": 668,
      "imal": 669,
      "animal": 670,
      "Amy": 671,
      "udd": 672,
      "need": 673,
      "than": 674,
      "ven": 675,
      "able": 676,
      "ac": 677,
      "flow": 678,
      "As": 679,
      "har": 680,
      "sorry": 681,
      "sw": 682,
      "ell": 683,
      "uck": 684,
      "Can": 685,
      "Th": 686,
      "Sara": 687,
      "ged": 688,
      "ised": 689,
      "rock": 690,
      "dre": 691,
      "Thank": 692,
      "walked": 693,
      "urt": 694,
      "bear": 695,
      "read": 696,
      "hand": 697,
      "lea": 698,
      "urn": 699,
      "kind": 700,
      "rain": 701,
      "try": 702,
      "just": 703,
      "happened": 704,
      "str": 705,
      "Her": 706,
      "list": 707,
      "food": 708,
      "bet": 709,
      "didn": 710,
      "igh": 711,
      "fi": 712,
      "animals": 713,
      "war": 714,
      "spec": 715,
      "In": 716,
      "wat": 717,
      "near": 718,
      "sky": 719,
      "ine": 720,
      "cre": 721,
      "ving": 722,
      "bug": 723,
      "From": 724,
      "idea": 725,
      "better": 726,
      "heard": 727,
      "never": 728,
      "ket": 729,
      "che": 730,
      "tw": 731,
      "bro": 732,
      "bed": 733,
      "pla": 734,
      "ff": 735,
      "tal": 736,
      "love": 737,
      "nt": 738,
      "sp": 739,
      "ber": 740,
      "careful": 741,
      "share": 742,
      "tow": 743,
      "col": 744,
      "ial": 745,
      "flew": 746,
      "anymore": 747,
      "com": 748,
      "special": 749,
      "ion": 750,
      "lots": 751,
      "lf": 752,
      "per": 753,
      "where": 754,
      "don": 755,
      "wind": 756,
      "give": 757,
      "book": 758,
      "Every": 759,
      "safe": 760,
      "lad": 761,
      "clean": 762,
      "That": 763,
      "ground": 764,
      "even": 765,
      "ople": 766,
      "mag": 767,
      "over": 768,
      "cake": 769,
      "ass": 770,
      "shiny": 771,
      "udden": 772,
      "turn": 773,
      "fam": 774,
      "bad": 775,
      "after": 776,
      "Do": 777,
      "uddenly": 778,
      "people": 779,
      "proud": 780,
      "rabb": 781,
      "ever": 782,
      "door": 783,
      "surprised": 784,
      "high": 785,
      "hurt": 786,
      "pected": 787,
      "gard": 788,
      "garden": 789,
      "opened": 790,
      "picked": 791,
      "loud": 792,
      "clim": 793,
      "far": 794,
      "nexpected": 795,
      "unexpected": 796,
      "fo": 797,
      "bea": 798,
      "hard": 799,
      "app": 800,
      "What": 801,
      "place": 802,
      "unt": 803,
      "color": 804,
      "thanked": 805,
      "blue": 806,
      "still": 807,
      "ear": 808,
      "hugged": 809,
      "ct": 810,
      "call": 811,
      "No": 812,
      "off": 813,
      "mor": 814,
      "ough": 815,
      "magic": 816,
      "ummy": 817,
      "Wh": 818,
      "jumped": 819,
      "Jo": 820,
      "should": 821,
      "family": 822,
      "kid": 823,
      "walk": 824,
      "ool": 825,
      "smile": 826,
      "squ": 827,
      "rog": 828,
      "cha": 829,
      "imp": 830,
      "uff": 831,
      "rel": 832,
      "great": 833,
      "Suddenly": 834,
      "bra": 835,
      "stay": 836,
      "strong": 837,
      "ark": 838,
      "forest": 839,
      "tru": 840,
      "dan": 841,
      "itty": 842,
      "ture": 843,
      "sl": 844,
      "ble": 845,
      "frog": 846,
      "until": 847,
      "Sally": 848,
      "beaut": 849,
      "stick": 850,
      "dy": 851,
      "boat": 852,
      "ort": 853,
      "ning": 854,
      "ess": 855,
      "next": 856,
      "lease": 857,
      "This": 858,
      "Kitty": 859,
      "After": 860,
      "pt": 861,
      "happily": 862,
      "listen": 863,
      "ched": 864,
      "kids": 865,
      "beauti": 866,
      "beautiful": 867,
      "sed": 868,
      "helped": 869,
      "yes": 870,
      "showed": 871,
      "while": 872,
      "unny": 873,
      "story": 874,
      "town": 875,
      "cu": 876,
      "keep": 877,
      "At": 878,
      "picture": 879,
      "oft": 880,
      "ree": 881,
      "ste": 882,
      "lly": 883,
      "being": 884,
      "ak": 885,
      "met": 886,
      "everyone": 887,
      "ip": 888,
      "raw": 889,
      "called": 890,
      "les": 891,
      "stopped": 892,
      "game": 893,
      "Now": 894,
      "Fin": 895,
      "sing": 896,
      "angry": 897,
      "joy": 898,
      "uffy": 899,
      "open": 900,
      "ane": 901,
      "truck": 902,
      "luffy": 903,
      "soft": 904,
      "yummy": 905,
      "cry": 906,
      "lost": 907,
      "Jack": 908,
      "vent": 909,
      "warm": 910,
      "ild": 911,
      "ask": 912,
      "brave": 913,
      "work": 914,
      "mouse": 915,
      "ond": 916,
      "won": 917,
      "ished": 918,
      "watch": 919,
      "couldn": 920,
      "doll": 921,
      "face": 922,
      "leave": 923,
      "flower": 924,
      "also": 925,
      "fell": 926,
      "flowers": 927,
      "green": 928,
      "mon": 929,
      "llo": 930,
      "two": 931,
      "laugh": 932,
      "less": 933,
      "lock": 934,
      "gan": 935,
      "Look": 936,
      "noise": 937,
      "irst": 938,
      "owl": 939,
      "right": 940,
      "store": 941,
      "cream": 942,
      "soon": 943,
      "self": 944,
      "top": 945,
      "slide": 946,
      "ser": 947,
      "hole": 948,
      "Hi": 949,
      "Fluffy": 950,
      "iz": 951,
      "sat": 952,
      "before": 953,
      "irrel": 954,
      "key": 955,
      "ung": 956,
      "ired": 957,
      "illy": 958,
      "hear": 959,
      "race": 960,
      "table": 961,
      "kept": 962,
      "yard": 963,
      "nodd": 964,
      "squirrel": 965,
      "tor": 966,
      "nodded": 967,
      "used": 968,
      "swing": 969,
      "expl": 970,
      "birds": 971,
      "vo": 972,
      "rabbit": 973,
      "having": 974,
      "pain": 975,
      "hands": 976,
      "mber": 977,
      "set": 978,
      "going": 979,
      "tr": 980,
      "looking": 981,
      "Don": 982,
      "funny": 983,
      "rest": 984,
      "head": 985,
      "aybe": 986,
      "uch": 987,
      "catch": 988,
      "ught": 989,
      "fin": 990,
      "shed": 991,
      "yell": 992,
      "think": 993,
      "leep": 994,
      "fix": 995,
      "lled": 996,
      "sn": 997,
      "ting": 998,
      "tired": 999,
      "bunny": 1000,
      "ama": 1001,
      "wr": 1002,
      "ries": 1003,
      "night": 1004,
      "thr": 1005,
      "kit": 1006,
      "tell": 1007,
      "sound": 1008,
      "member": 1009,
      "has": 1010,
      "mean": 1011,
      "cook": 1012,
      "cold": 1013,
      "Why": 1014,
      "pond": 1015,
      "sunny": 1016,
      "others": 1017,
      "talk": 1018,
      "flo": 1019,
      "chen": 1020,
      "ds": 1021,
      "kitchen": 1022,
      "wait": 1023,
      "cut": 1024,
      "pie": 1025,
      "Dad": 1026,
      "cou": 1027,
      "dif": 1028,
      "first": 1029,
      "Hello": 1030,
      "mommy": 1031,
      "eyes": 1032,
      "import": 1033,
      "age": 1034,
      "fav": 1035,
      "ies": 1036,
      "swe": 1037,
      "con": 1038,
      "ath": 1039,
      "remember": 1040,
      "climb": 1041,
      "party": 1042,
      "ft": 1043,
      "ious": 1044,
      "sand": 1045,
      "bar": 1046,
      "orn": 1047,
      "move": 1048,
      "llow": 1049,
      "curi": 1050,
      "important": 1051,
      "light": 1052,
      "duck": 1053,
      "moral": 1054,
      "shared": 1055,
      "zy": 1056,
      "ster": 1057,
      "okay": 1058,
      "dress": 1059,
      "advent": 1060,
      "ash": 1061,
      "worked": 1062,
      "making": 1063,
      "enjoy": 1064,
      "bright": 1065,
      "times": 1066,
      "curious": 1067,
      "fru": 1068,
      "agre": 1069,
      "Mommy": 1070,
      "Joh": 1071,
      "tall": 1072,
      "dir": 1073,
      "hone": 1074,
      "hid": 1075,
      "John": 1076,
      "favor": 1077,
      "dis": 1078,
      "Wow": 1079,
      "sleep": 1080,
      "favorite": 1081,
      "began": 1082,
      "shar": 1083,
      "Bo": 1084,
      "bag": 1085,
      "fire": 1086,
      "hill": 1087,
      "agreed": 1088,
      "draw": 1089,
      "sho": 1090,
      "ken": 1091,
      "bre": 1092,
      "cla": 1093,
      "que": 1094,
      "hind": 1095,
      "watched": 1096,
      "follow": 1097,
      "mess": 1098,
      "zed": 1099,
      "Mr": 1100,
      "pick": 1101,
      "please": 1102,
      "block": 1103,
      "stop": 1104,
      "hung": 1105,
      "behind": 1106,
      "gu": 1107,
      "surprise": 1108,
      "paper": 1109,
      "hot": 1110,
      "Maybe": 1111,
      "worry": 1112,
      "dark": 1113,
      "dro": 1114,
      "Bobo": 1115,
      "trees": 1116,
      "voice": 1117,
      "grass": 1118,
      "walking": 1119,
      "air": 1120,
      "tail": 1121,
      "fere": 1122,
      "lion": 1123,
      "floor": 1124,
      "farm": 1125,
      "differe": 1126,
      "song": 1127,
      "stand": 1128,
      "feeling": 1129,
      "butter": 1130,
      "led": 1131,
      "wel": 1132,
      "ready": 1133,
      "ied": 1134,
      "colors": 1135,
      "lady": 1136,
      "Jane": 1137,
      "ange": 1138,
      "Timmy": 1139,
      "isy": 1140,
      "leaves": 1141,
      "closer": 1142,
      "ign": 1143,
      "cars": 1144,
      "turned": 1145,
      "needed": 1146,
      "wood": 1147,
      "cried": 1148,
      "tri": 1149,
      "different": 1150,
      "piece": 1151,
      "adventure": 1152,
      "does": 1153,
      "prin": 1154,
      "hair": 1155,
      "hungry": 1156,
      "cked": 1157,
      "tra": 1158,
      "bye": 1159,
      "yellow": 1160,
      "sweet": 1161,
      "ced": 1162,
      "full": 1163,
      "touch": 1164,
      "wet": 1165,
      "mar": 1166,
      "friendly": 1167,
      "mis": 1168,
      "ike": 1169,
      "cr": 1170,
      "ger": 1171,
      "din": 1172,
      "broken": 1173,
      "mou": 1174,
      "cra": 1175,
      "All": 1176,
      "land": 1177,
      "ient": 1178,
      "sit": 1179,
      "med": 1180,
      "prom": 1181,
      "another": 1182,
      "pretend": 1183,
      "dance": 1184,
      "reac": 1185,
      "climbed": 1186,
      "listened": 1187,
      "plan": 1188,
      "tle": 1189,
      "pen": 1190,
      "ater": 1191,
      "fl": 1192,
      "running": 1193,
      "To": 1194,
      "only": 1195,
      "river": 1196,
      "gone": 1197,
      "swim": 1198,
      "ila": 1199,
      "train": 1200,
      "andma": 1201,
      "smell": 1202,
      "thank": 1203,
      "There": 1204,
      "close": 1205,
      "ple": 1206,
      "gg": 1207,
      "Lila": 1208,
      "pet": 1209,
      "hold": 1210,
      "aby": 1211,
      "chair": 1212,
      "blocks": 1213,
      "wonder": 1214,
      "Everyone": 1215,
      "av": 1216,
      "fight": 1217,
      "reached": 1218,
      "lie": 1219,
      "wall": 1220,
      "bor": 1221,
      "rag": 1222,
      "ner": 1223,
      "helping": 1224,
      "ary": 1225,
      "kay": 1226,
      "slow": 1227,
      "ze": 1228,
      "cool": 1229,
      "glad": 1230,
      "hop": 1231,
      "goodbye": 1232,
      "been": 1233,
      "wear": 1234,
      "fair": 1235,
      "pushed": 1236,
      "ins": 1237,
      "ered": 1238,
      "oon": 1239,
      "iced": 1240,
      "dr": 1241,
      "bit": 1242,
      "Just": 1243,
      "sees": 1244,
      "hide": 1245,
      "coming": 1246,
      "must": 1247,
      "moment": 1248,
      "window": 1249,
      "fr": 1250,
      "balloon": 1251,
      "repl": 1252,
      "done": 1253,
      "snow": 1254,
      "explore": 1255,
      "bow": 1256,
      "Soon": 1257,
      "wished": 1258,
      "baby": 1259,
      "stuck": 1260,
      "buy": 1261,
      "real": 1262,
      "fall": 1263,
      "might": 1264,
      "name": 1265,
      "apple": 1266,
      "trying": 1267,
      "quick": 1268,
      "scary": 1269,
      "looks": 1270,
      "dream": 1271,
      "doing": 1272,
      "aisy": 1273,
      "ings": 1274,
      "dirty": 1275,
      "build": 1276,
      "outed": 1277,
      "ppy": 1278,
      "cket": 1279,
      "held": 1280,
      "Be": 1281,
      "ames": 1282,
      "spo": 1283,
      "arm": 1284,
      "je": 1285,
      "wise": 1286,
      "cast": 1287,
      "butterfly": 1288,
      "swa": 1289,
      "left": 1290,
      "deli": 1291,
      "shouted": 1292,
      "replied": 1293,
      "sure": 1294,
      "wo": 1295,
      "win": 1296,
      "em": 1297,
      "reach": 1298,
      "why": 1299,
      "bran": 1300,
      "through": 1301,
      "tiny": 1302,
      "wag": 1303,
      "mi": 1304,
      "mat": 1305,
      "three": 1306,
      "treat": 1307,
      "grow": 1308,
      "pulled": 1309,
      "brother": 1310,
      "woods": 1311,
      "art": 1312,
      "fill": 1313,
      "ton": 1314,
      "bus": 1315,
      "seen": 1316,
      "cup": 1317,
      "pink": 1318,
      "plant": 1319,
      "clapped": 1320,
      "ield": 1321,
      "sometimes": 1322,
      "andy": 1323,
      "year": 1324,
      "cloud": 1325,
      "swam": 1326,
      "grabb": 1327,
      "Okay": 1328,
      "Inside": 1329,
      "job": 1330,
      "colorful": 1331,
      "nest": 1332,
      "remembered": 1333,
      "bigger": 1334,
      "mouth": 1335,
      "join": 1336,
      "lesson": 1337,
      "Oh": 1338,
      "waved": 1339,
      "grabbed": 1340,
      "stayed": 1341,
      "Daisy": 1342,
      "uddy": 1343,
      "rot": 1344,
      "Buddy": 1345,
      "clothe": 1346,
      "nap": 1347,
      "oup": 1348,
      "waited": 1349,
      "clothes": 1350,
      "heav": 1351,
      "quickly": 1352,
      "pare": 1353,
      "broke": 1354,
      "games": 1355,
      "gent": 1356,
      "vis": 1357,
      "blew": 1358,
      "Finally": 1359,
      "gl": 1360,
      "ucky": 1361,
      "erous": 1362,
      "While": 1363,
      "row": 1364,
      "zz": 1365,
      "noticed": 1366,
      "enjoyed": 1367,
      "tast": 1368,
      "pur": 1369,
      "thre": 1370,
      "likes": 1371,
      "paint": 1372,
      "sea": 1373,
      "pictures": 1374,
      "books": 1375,
      "dry": 1376,
      "heavy": 1377,
      "gif": 1378,
      "alone": 1379,
      "mus": 1380,
      "asure": 1381,
      "anything": 1382,
      "spot": 1383,
      "live": 1384,
      "hopped": 1385,
      "turns": 1386,
      "Tommy": 1387,
      "world": 1388,
      "castle": 1389,
      "cont": 1390,
      "pat": 1391,
      "Sarah": 1392,
      "mix": 1393,
      "bike": 1394,
      "tight": 1395,
      "forgot": 1396,
      "everywhere": 1397,
      "Joe": 1398,
      "tower": 1399,
      "round": 1400,
      "threw": 1401,
      "whis": 1402,
      "himself": 1403,
      "Please": 1404,
      "followed": 1405,
      "ju": 1406,
      "ride": 1407,
      "board": 1408,
      "ather": 1409,
      "fruit": 1410,
      "\".": 1411,
      "white": 1412,
      "sec": 1413,
      "wrong": 1414,
      "makes": 1415,
      "stran": 1416,
      "Em": 1417,
      "break": 1418,
      "pre": 1419,
      "black": 1420,
      "parent": 1421,
      "thy": 1422,
      "bee": 1423,
      "music": 1424,
      "deep": 1425,
      "cess": 1426,
      "Re": 1427,
      "stone": 1428,
      "olly": 1429,
      "Billy": 1430,
      "ation": 1431,
      "whe": 1432,
      "oun": 1433,
      "stre": 1434,
      "pill": 1435,
      "wi": 1436,
      "lar": 1437,
      "iet": 1438,
      "danced": 1439,
      "ap": 1440,
      "ali": 1441,
      "leaf": 1442,
      "wants": 1443,
      "quiet": 1444,
      "ba": 1445,
      "monster": 1446,
      "understand": 1447,
      "bowl": 1448,
      "fur": 1449,
      "Come": 1450,
      "ub": 1451,
      "talked": 1452,
      "pes": 1453,
      "itten": 1454,
      "faster": 1455,
      "fully": 1456,
      "cookies": 1457,
      "pro": 1458,
      "brought": 1459,
      "leg": 1460,
      "ross": 1461,
      "sc": 1462,
      "ph": 1463,
      "cy": 1464,
      "mum": 1465,
      "sign": 1466,
      "ued": 1467,
      "sis": 1468,
      "well": 1469,
      "ance": 1470,
      "ts": 1471,
      "smart": 1472,
      "rocks": 1473,
      "someone": 1474,
      "poin": 1475,
      "sharing": 1476,
      "cover": 1477,
      "reali": 1478,
      "fox": 1479,
      "button": 1480,
      "happen": 1481,
      "branch": 1482,
      "finished": 1483,
      "really": 1484,
      "oom": 1485,
      "hit": 1486,
      "ence": 1487,
      "orange": 1488,
      "Gr": 1489,
      "itch": 1490,
      "sister": 1491,
      "corn": 1492,
      "dinner": 1493,
      "zing": 1494,
      "gi": 1495,
      "flying": 1496,
      "ele": 1497,
      "most": 1498,
      "contin": 1499,
      "fect": 1500,
      "worried": 1501,
      "sy": 1502,
      "beach": 1503,
      "af": 1504,
      "plane": 1505,
      "dang": 1506,
      "wish": 1507,
      "secret": 1508,
      "stu": 1509,
      "dren": 1510,
      "chil": 1511,
      "free": 1512,
      "spe": 1513,
      "today": 1514,
      "perfect": 1515,
      "min": 1516,
      "shin": 1517,
      "everything": 1518,
      "silly": 1519,
      "children": 1520,
      "filled": 1521,
      "field": 1522,
      "else": 1523,
      "oth": 1524,
      "stead": 1525,
      "smiles": 1526,
      "OK": 1527,
      "visit": 1528,
      "pow": 1529,
      "sang": 1530,
      "snack": 1531,
      "pull": 1532,
      "asks": 1533,
      "parents": 1534,
      "pudd": 1535,
      "eating": 1536,
      "pieces": 1537,
      "realized": 1538,
      "promised": 1539,
      "ctor": 1540,
      "pig": 1541,
      "spr": 1542,
      "pers": 1543,
      "continued": 1544,
      "bite": 1545,
      "ses": 1546,
      "carefully": 1547,
      "itting": 1548,
      "ons": 1549,
      "hig": 1550,
      "gra": 1551,
      "jar": 1552,
      "phone": 1553,
      "pper": 1554,
      "cow": 1555,
      "ated": 1556,
      "words": 1557,
      "drag": 1558,
      "moved": 1559,
      "mud": 1560,
      "rolled": 1561,
      "wave": 1562,
      "amp": 1563,
      "appear": 1564,
      "crying": 1565,
      "Le": 1566,
      "enough": 1567,
      "blan": 1568,
      "blanket": 1569,
      "Jim": 1570,
      "bath": 1571,
      "oney": 1572,
      "soup": 1573,
      "dri": 1574,
      "mother": 1575,
      "sail": 1576,
      "push": 1577,
      "imi": 1578,
      "Mimi": 1579,
      "My": 1580,
      "Jen": 1581,
      "drink": 1582,
      "Some": 1583,
      "boun": 1584,
      "snake": 1585,
      "pass": 1586,
      "throw": 1587,
      "roll": 1588,
      "fairy": 1589,
      "crab": 1590,
      "laughing": 1591,
      "amazing": 1592,
      "ote": 1593,
      "getting": 1594,
      "purple": 1595,
      "without": 1596,
      "bottle": 1597,
      "grandma": 1598,
      "gift": 1599,
      "mail": 1600,
      "spl": 1601,
      "money": 1602,
      "barked": 1603,
      "wagged": 1604,
      "monkey": 1605,
      "past": 1606,
      "welcome": 1607,
      "sel": 1608,
      "chool": 1609,
      "brown": 1610,
      "doctor": 1611,
      "ises": 1612,
      "closed": 1613,
      "school": 1614,
      "pping": 1615,
      "cious": 1616,
      "morning": 1617,
      "owner": 1618,
      "candy": 1619,
      "lone": 1620,
      "higher": 1621,
      "sitting": 1622,
      ".”": 1623,
      "stoo": 1624,
      "treasure": 1625,
      "hes": 1626,
      "dangerous": 1627,
      "!”": 1628,
      "net": 1629,
      "lonely": 1630,
      "shop": 1631,
      "living": 1632,
      "icy": 1633,
      "apples": 1634,
      "count": 1635,
      "strange": 1636,
      "comfor": 1637,
      "Bl": 1638,
      "smo": 1639,
      "road": 1640,
      "shining": 1641,
      "egg": 1642,
      "ants": 1643,
      "paw": 1644,
      "una": 1645,
      "creat": 1646,
      "cks": 1647,
      "shoes": 1648,
      "ible": 1649,
      "talking": 1650,
      "althy": 1651,
      "caught": 1652,
      "Ch": 1653,
      "stood": 1654,
      "lake": 1655,
      "letter": 1656,
      "runs": 1657,
      "coat": 1658,
      "bas": 1659,
      "wings": 1660,
      "chee": 1661,
      "cho": 1662,
      "fan": 1663,
      "va": 1664,
      "nee": 1665,
      "Fred": 1666,
      "years": 1667,
      "basket": 1668,
      "dragon": 1669,
      "days": 1670,
      "belie": 1671,
      "mine": 1672,
      "thinks": 1673,
      "delicious": 1674,
      "puddle": 1675,
      "nose": 1676,
      "igg": 1677,
      "farmer": 1678,
      "same": 1679,
      "Emma": 1680,
      "teddy": 1681,
      "mind": 1682,
      "unch": 1683,
      "sear": 1684,
      "ches": 1685,
      "Whis": 1686,
      "Molly": 1687,
      "Good": 1688,
      "fit": 1689,
      "bring": 1690,
      "gentle": 1691,
      "wards": 1692,
      "start": 1693,
      "Together": 1694,
      "finally": 1695,
      "cray": 1696,
      "kite": 1697,
      "scream": 1698,
      "pol": 1699,
      "shell": 1700,
      "vill": 1701,
      "singing": 1702,
      "hor": 1703,
      "tasty": 1704,
      "idge": 1705,
      "ace": 1706,
      "ben": 1707,
      "trou": 1708,
      "herself": 1709,
      "hoped": 1710,
      "wore": 1711,
      "answ": 1712,
      "arri": 1713,
      "swings": 1714,
      "Blue": 1715,
      "uni": 1716,
      "kis": 1717,
      "belong": 1718,
      "pack": 1719,
      "kers": 1720,
      "bush": 1721,
      "ng": 1722,
      "kn": 1723,
      "woke": 1724,
      "carrot": 1725,
      "ming": 1726,
      "Bell": 1727,
      "ughty": 1728,
      "teach": 1729,
      "eleph": 1730,
      "naughty": 1731,
      "dropped": 1732,
      "hu": 1733,
      "Whiskers": 1734,
      "teac": 1735,
      "coll": 1736,
      "pile": 1737,
      "hiding": 1738,
      "cour": 1739,
      "Their": 1740,
      "Remy": 1741,
      "di": 1742,
      "Bella": 1743,
      "bell": 1744,
      "touc": 1745,
      "isa": 1746,
      "val": 1747,
      "kno": 1748,
      "su": 1749,
      "puppy": 1750,
      "llie": 1751,
      "If": 1752,
      "lunch": 1753,
      "twins": 1754,
      "sack": 1755,
      "ment": 1756,
      "rope": 1757,
      "mach": 1758,
      "Mark": 1759,
      "Lisa": 1760,
      "course": 1761,
      "Grandma": 1762,
      "shapes": 1763,
      "cheered": 1764,
      "grew": 1765,
      "lay": 1766,
      "village": 1767,
      "fused": 1768,
      "shelf": 1769,
      "erful": 1770,
      "irth": 1771,
      "spin": 1772,
      "juice": 1773,
      "word": 1774,
      "rainbow": 1775,
      "part": 1776,
      "irthday": 1777,
      "shook": 1778,
      "bench": 1779,
      "fence": 1780,
      "street": 1781,
      "cute": 1782,
      "nut": 1783,
      "Jill": 1784,
      "cal": 1785,
      "cheese": 1786,
      "touched": 1787,
      "balls": 1788,
      "orm": 1789,
      "shad": 1790,
      "wand": 1791,
      "seed": 1792,
      "tea": 1793,
      "eas": 1794,
      "teacher": 1795,
      "des": 1796,
      "loom": 1797,
      "arrived": 1798,
      "band": 1799,
      "wra": 1800,
      "forever": 1801,
      "carry": 1802,
      "few": 1803,
      "lla": 1804,
      "bugs": 1805,
      "sounds": 1806,
      "sli": 1807,
      "Go": 1808,
      "blem": 1809,
      "problem": 1810,
      "cing": 1811,
      "num": 1812,
      "promise": 1813,
      "ilk": 1814,
      "ier": 1815,
      "birthday": 1816,
      "wonderful": 1817,
      "dolls": 1818,
      "How": 1819,
      "stor": 1820,
      "busy": 1821,
      "shy": 1822,
      "irp": 1823,
      "feels": 1824,
      "bread": 1825,
      "ade": 1826,
      "neck": 1827,
      "milk": 1828,
      "ian": 1829,
      "robot": 1830,
      "vel": 1831,
      "ntain": 1832,
      "pop": 1833,
      "heart": 1834,
      "believe": 1835,
      "irt": 1836,
      "cave": 1837,
      "pocket": 1838,
      "shake": 1839,
      "seek": 1840,
      "helpful": 1841,
      "storm": 1842,
      "slowly": 1843,
      "Pe": 1844,
      "umpy": 1845,
      "patient": 1846,
      "berries": 1847,
      "appeared": 1848,
      "ugly": 1849,
      "driver": 1850,
      "holding": 1851,
      "towards": 1852,
      "elephant": 1853,
      "upset": 1854,
      "ring": 1855,
      "turt": 1856,
      "kitten": 1857,
      "stories": 1858,
      "suc": 1859,
      "late": 1860,
      "splash": 1861,
      "Sure": 1862,
      "honey": 1863,
      "zoom": 1864,
      "cir": 1865,
      "noises": 1866,
      "sharp": 1867,
      "Later": 1868,
      "spark": 1869,
      "gray": 1870,
      "dirt": 1871,
      "Leo": 1872,
      "dist": 1873,
      "seat": 1874,
      "Ann": 1875,
      "ucket": 1876,
      "bucket": 1877,
      "shr": 1878,
      "meet": 1879,
      "young": 1880,
      "note": 1881,
      "uce": 1882,
      "amazed": 1883,
      "turtle": 1884,
      "spoon": 1885,
      "treats": 1886,
      "spid": 1887,
      "ull": 1888,
      "magical": 1889,
      "wash": 1890,
      "shine": 1891,
      "ped": 1892,
      "era": 1893,
      "glow": 1894,
      "Mama": 1895,
      "fold": 1896,
      "lemon": 1897,
      "trip": 1898,
      "comfortable": 1899,
      "gen": 1900,
      "mist": 1901,
      "quest": 1902,
      "hang": 1903,
      "jour": 1904,
      "horse": 1905,
      "loth": 1906,
      "add": 1907,
      "cloth": 1908,
      "puzz": 1909,
      "Daddy": 1910,
      "organ": 1911,
      "princess": 1912,
      "roar": 1913,
      "cookie": 1914,
      "picy": 1915,
      "drive": 1916,
      "oose": 1917,
      "hugs": 1918,
      "wild": 1919,
      "taking": 1920,
      "wheel": 1921,
      "bled": 1922,
      "organiz": 1923,
      "miss": 1924,
      "sug": 1925,
      "iling": 1926,
      "rich": 1927,
      "Of": 1928,
      "string": 1929,
      "instead": 1930,
      "ti": 1931,
      "rude": 1932,
      "lucky": 1933,
      "drove": 1934,
      "ero": 1935,
      "Bu": 1936,
      "huge": 1937,
      "mer": 1938,
      "coin": 1939,
      "lice": 1940,
      "fighting": 1941,
      "stars": 1942,
      "spicy": 1943,
      "bone": 1944,
      "Mary": 1945,
      "craw": 1946,
      "Hey": 1947,
      "tie": 1948,
      "den": 1949,
      "cor": 1950,
      "ek": 1951,
      "bubb": 1952,
      "last": 1953,
      "wide": 1954,
      "card": 1955,
      "Cat": 1956,
      "life": 1957,
      "Ro": 1958,
      "whistle": 1959,
      "path": 1960,
      "ney": 1961,
      "cannot": 1962,
      "sick": 1963,
      "bat": 1964,
      "comes": 1965,
      "rush": 1966,
      "resting": 1967,
      "circle": 1968,
      "spider": 1969,
      "foot": 1970,
      "inv": 1971,
      "songs": 1972,
      "snowman": 1973,
      "change": 1974,
      "Luna": 1975,
      "pillow": 1976,
      "fixed": 1977,
      "With": 1978,
      "sage": 1979,
      "boss": 1980,
      "giant": 1981,
      "joke": 1982,
      "erry": 1983,
      "forget": 1984,
      "ship": 1985,
      "pra": 1986,
      "moon": 1987,
      "worm": 1988,
      "taste": 1989,
      "grumpy": 1990,
      "wing": 1991,
      "machine": 1992,
      "coun": 1993,
      "thin": 1994,
      "step": 1995,
      "bri": 1996,
      "grab": 1997,
      "att": 1998,
      "rad": 1999,
      "peace": 2000,
      "Chirp": 2001,
      "sour": 2002,
      "ined": 2003,
      "daddy": 2004,
      "fing": 2005,
      "suddenly": 2006,
      "landed": 2007,
      "hidden": 2008,
      "wasn": 2009,
      "write": 2010,
      "confused": 2011,
      "chased": 2012,
      "inte": 2013,
      "ert": 2014,
      "fruits": 2015,
      "myster": 2016,
      "smooth": 2017,
      "cage": 2018,
      "stepped": 2019,
      "oven": 2020,
      "adventures": 2021,
      "missed": 2022,
      "takes": 2023,
      "selfish": 2024,
      "ggy": 2025,
      "kin": 2026,
      "tu": 2027,
      "sheep": 2028,
      "messy": 2029,
      "across": 2030,
      "dest": 2031,
      "cop": 2032,
      "pan": 2033,
      "though": 2034,
      "hero": 2035,
      "sticks": 2036,
      "ps": 2037,
      "Momo": 2038,
      "later": 2039,
      "gy": 2040,
      "io": 2041,
      "bought": 2042,
      "elly": 2043,
      "drew": 2044,
      "grate": 2045,
      "cord": 2046,
      "Chirpy": 2047
    },
    "merges": [
      [
        "h",
        "e"
      ],
      [
        "a",
        "n"
      ],
      [
        "t",
        "he"
      ],
      [
        "e",
        "d"
      ],
      [
        "t",
        "o"
      ],
      [
        "an",
        "d"
      ],
      [
        "i",
        "n"
      ],
      [
        "r",
        "e"
      ],
      [
        "i",
        "t"
      ],
      [
        "w",
        "a"
      ],
      [
        "o",
        "u"
      ],
      [
        "h",
        "a"
      ],
      [
        "T",
        "he"
      ],
      [
        "e",
        "r"
      ],
      [
        "wa",
        "s"
      ],
      [
        "a",
        "y"
      ],
      [
        "e",
        "n"
      ],
      [
        "o",
        "m"
      ],
      [
        "i",
        "s"
      ],
      [
        "a",
        "r"
      ],
      [
        "o",
        "n"
      ],
      [
        "i",
        "m"
      ],
      [
        "s",
        "a"
      ],
      [
        "i",
        "d"
      ],
      [
        "l",
        "l"
      ],
      [
        "l",
        "e"
      ],
      [
        "in",
        "g"
      ],
      [
        "s",
        "t"
      ],
      [
        "o",
        "t"
      ],
      [
        "a",
        "m"
      ],
      [
        "o",
        "r"
      ],
      [
        "i",
        "r"
      ],
      [
        "n",
        "e"
      ],
      [
        "The",
        "y"
      ],
      [
        "p",
        "l"
      ],
      [
        "i",
        "g"
      ],
      [
        "a",
        "t"
      ],
      [
        "H",
        "e"
      ],
      [
        "b",
        "e"
      ],
      [
        "i",
        "l"
      ],
      [
        "l",
        "o"
      ],
      [
        "a",
        "ll"
      ],
      [
        "r",
        "i"
      ],
      [
        "v",
        "er"
      ],
      [
        "h",
        "is"
      ],
      [
        "d",
        "ay"
      ],
      [
        "u",
        "t"
      ],
      [
        "pl",
        "ay"
      ],
      [
        "sa",
        "id"
      ],
      [
        "T",
        "im"
      ],
      [
        "it",
        "h"
      ],
      [
        "s",
        "e"
      ],
      [
        "w",
        "ith"
      ],
      [
        "p",
        "p"
      ],
      [
        "he",
        "r"
      ],
      [
        "k",
        "ed"
      ],
      [
        "o",
        "w"
      ],
      [
        "c",
        "e"
      ],
      [
        "u",
        "n"
      ],
      [
        "k",
        "e"
      ],
      [
        "S",
        "he"
      ],
      [
        "ha",
        "t"
      ],
      [
        "l",
        "d"
      ],
      [
        "t",
        "h"
      ],
      [
        "b",
        "ig"
      ],
      [
        "en",
        "d"
      ],
      [
        "y",
        "ou"
      ],
      [
        "ver",
        "y"
      ],
      [
        "t",
        "ed"
      ],
      [
        "v",
        "e"
      ],
      [
        "l",
        "i"
      ],
      [
        "c",
        "k"
      ],
      [
        "w",
        "e"
      ],
      [
        "ha",
        "pp"
      ],
      [
        "o",
        "f"
      ],
      [
        "ri",
        "end"
      ],
      [
        "f",
        "riend"
      ],
      [
        "u",
        "p"
      ],
      [
        "il",
        "y"
      ],
      [
        "the",
        "y"
      ],
      [
        "ha",
        "d"
      ],
      [
        "a",
        "d"
      ],
      [
        "n",
        "ot"
      ],
      [
        "w",
        "an"
      ],
      [
        "g",
        "e"
      ],
      [
        "it",
        "t"
      ],
      [
        "om",
        "e"
      ],
      [
        "the",
        "r"
      ],
      [
        "d",
        "o"
      ],
      [
        "n",
        "d"
      ],
      [
        "b",
        "o"
      ],
      [
        "a",
        "l"
      ],
      [
        "happ",
        "y"
      ],
      [
        "c",
        "h"
      ],
      [
        "L",
        "ily"
      ],
      [
        "en",
        "t"
      ],
      [
        "f",
        "or"
      ],
      [
        "t",
        "hat"
      ],
      [
        "sa",
        "w"
      ],
      [
        "s",
        "he"
      ],
      [
        "O",
        "ne"
      ],
      [
        "ou",
        "ld"
      ],
      [
        "m",
        "om"
      ],
      [
        "itt",
        "le"
      ],
      [
        "l",
        "ittle"
      ],
      [
        "im",
        "e"
      ],
      [
        "a",
        "s"
      ],
      [
        "s",
        "o"
      ],
      [
        "T",
        "om"
      ],
      [
        "t",
        "ime"
      ],
      [
        "r",
        "o"
      ],
      [
        "f",
        "e"
      ],
      [
        "n",
        "am"
      ],
      [
        ".",
        "\""
      ],
      [
        "ou",
        "nd"
      ],
      [
        "e",
        "s"
      ],
      [
        "the",
        "re"
      ],
      [
        "o",
        "o"
      ],
      [
        "nam",
        "ed"
      ],
      [
        "s",
        "m"
      ],
      [
        "we",
        "re"
      ],
      [
        "I",
        "t"
      ],
      [
        "wan",
        "ted"
      ],
      [
        "b",
        "ut"
      ],
      [
        "friend",
        "s"
      ],
      [
        "v",
        "ed"
      ],
      [
        "!",
        "\""
      ],
      [
        "h",
        "t"
      ],
      [
        "ir",
        "d"
      ],
      [
        "s",
        "h"
      ],
      [
        "r",
        "y"
      ],
      [
        "a",
        "re"
      ],
      [
        "b",
        "ird"
      ],
      [
        "to",
        "o"
      ],
      [
        "r",
        "a"
      ],
      [
        "O",
        "n"
      ],
      [
        "m",
        "y"
      ],
      [
        "ou",
        "t"
      ],
      [
        "u",
        "g"
      ],
      [
        "a",
        "ke"
      ],
      [
        "id",
        "e"
      ],
      [
        "l",
        "p"
      ],
      [
        "t",
        "er"
      ],
      [
        "w",
        "ent"
      ],
      [
        "On",
        "ce"
      ],
      [
        "c",
        "ar"
      ],
      [
        "lo",
        "o"
      ],
      [
        "u",
        "e"
      ],
      [
        "he",
        "lp"
      ],
      [
        "up",
        "on"
      ],
      [
        "th",
        "ing"
      ],
      [
        "in",
        "d"
      ],
      [
        "f",
        "un"
      ],
      [
        "to",
        "y"
      ],
      [
        "i",
        "ll"
      ],
      [
        "am",
        "e"
      ],
      [
        "d",
        "id"
      ],
      [
        "l",
        "y"
      ],
      [
        "ge",
        "ther"
      ],
      [
        "p",
        "e"
      ],
      [
        "u",
        "r"
      ],
      [
        "wa",
        "y"
      ],
      [
        "s",
        "ome"
      ],
      [
        "on",
        "e"
      ],
      [
        "c",
        "at"
      ],
      [
        "m",
        "e"
      ],
      [
        "to",
        "gether"
      ],
      [
        "o",
        "re"
      ],
      [
        "t",
        "re"
      ],
      [
        "a",
        "ck"
      ],
      [
        "a",
        "g"
      ],
      [
        "ne",
        "w"
      ],
      [
        "c",
        "an"
      ],
      [
        "do",
        "g"
      ],
      [
        "c",
        "ame"
      ],
      [
        "c",
        "ould"
      ],
      [
        "oo",
        "d"
      ],
      [
        "the",
        "ir"
      ],
      [
        "b",
        "all"
      ],
      [
        "i",
        "c"
      ],
      [
        "p",
        "ar"
      ],
      [
        "g",
        "ir"
      ],
      [
        "play",
        "ed"
      ],
      [
        "h",
        "im"
      ],
      [
        "B",
        "ut"
      ],
      [
        "?",
        "\""
      ],
      [
        "gir",
        "l"
      ],
      [
        "g",
        "o"
      ],
      [
        "f",
        "u"
      ],
      [
        "h",
        "o"
      ],
      [
        "m",
        "an"
      ],
      [
        "the",
        "m"
      ],
      [
        "he",
        "n"
      ],
      [
        "u",
        "m"
      ],
      [
        "a",
        "x"
      ],
      [
        "sa",
        "d"
      ],
      [
        "S",
        "ue"
      ],
      [
        "r",
        "om"
      ],
      [
        "bo",
        "y"
      ],
      [
        "ha",
        "ve"
      ],
      [
        "tre",
        "e"
      ],
      [
        "M",
        "ax"
      ],
      [
        "lo",
        "ved"
      ],
      [
        "loo",
        "ked"
      ],
      [
        "ou",
        "g"
      ],
      [
        "he",
        "d"
      ],
      [
        "f",
        "ound"
      ],
      [
        "st",
        "ar"
      ],
      [
        "a",
        "b"
      ],
      [
        "s",
        "ide"
      ],
      [
        "o",
        "ther"
      ],
      [
        "b",
        "ack"
      ],
      [
        "B",
        "en"
      ],
      [
        "l",
        "a"
      ],
      [
        "l",
        "t"
      ],
      [
        "par",
        "k"
      ],
      [
        "li",
        "ke"
      ],
      [
        "a",
        "in"
      ],
      [
        "S",
        "am"
      ],
      [
        "fu",
        "l"
      ],
      [
        "ow",
        "n"
      ],
      [
        "d",
        "e"
      ],
      [
        "o",
        "p"
      ],
      [
        "p",
        "r"
      ],
      [
        "e",
        "t"
      ],
      [
        "on",
        "g"
      ],
      [
        "ig",
        "ht"
      ],
      [
        "n",
        "o"
      ],
      [
        "p",
        "ot"
      ],
      [
        "f",
        "a"
      ],
      [
        "r",
        "an"
      ],
      [
        "li",
        "ked"
      ],
      [
        "w",
        "ould"
      ],
      [
        "s",
        "to"
      ],
      [
        "c",
        "o"
      ],
      [
        "m",
        "ake"
      ],
      [
        "fe",
        "lt"
      ],
      [
        "Y",
        "ou"
      ],
      [
        "se",
        "e"
      ],
      [
        "n",
        "ow"
      ],
      [
        "wan",
        "t"
      ],
      [
        "as",
        "ked"
      ],
      [
        "ou",
        "se"
      ],
      [
        "ar",
        "d"
      ],
      [
        "c",
        "a"
      ],
      [
        "star",
        "ted"
      ],
      [
        "oug",
        "ht"
      ],
      [
        "il",
        "ed"
      ],
      [
        "i",
        "ce"
      ],
      [
        "g",
        "ood"
      ],
      [
        "sm",
        "all"
      ],
      [
        "w",
        "or"
      ],
      [
        "sm",
        "iled"
      ],
      [
        "m",
        "ore"
      ],
      [
        "s",
        "ay"
      ],
      [
        "ri",
        "ed"
      ],
      [
        "e",
        "x"
      ],
      [
        "m",
        "ad"
      ],
      [
        "s",
        "car"
      ],
      [
        "r",
        "ed"
      ],
      [
        "g",
        "r"
      ],
      [
        "S",
        "pot"
      ],
      [
        "p",
        "ut"
      ],
      [
        "k",
        "ing"
      ],
      [
        "f",
        "ind"
      ],
      [
        "M",
        "om"
      ],
      [
        "t",
        "y"
      ],
      [
        "h",
        "ome"
      ],
      [
        "a",
        "way"
      ],
      [
        "w",
        "hat"
      ],
      [
        "some",
        "thing"
      ],
      [
        "f",
        "rom"
      ],
      [
        "mad",
        "e"
      ],
      [
        "u",
        "c"
      ],
      [
        "th",
        "ought"
      ],
      [
        "en",
        "ed"
      ],
      [
        "s",
        "ha"
      ],
      [
        "play",
        "ing"
      ],
      [
        "i",
        "a"
      ],
      [
        "wa",
        "l"
      ],
      [
        "e",
        "very"
      ],
      [
        "a",
        "ch"
      ],
      [
        "m",
        "u"
      ],
      [
        "ar",
        "n"
      ],
      [
        "M",
        "ia"
      ],
      [
        "i",
        "le"
      ],
      [
        "bo",
        "x"
      ],
      [
        "ag",
        "ain"
      ],
      [
        "h",
        "ouse"
      ],
      [
        "la",
        "ug"
      ],
      [
        "re",
        "t"
      ],
      [
        "d",
        "own"
      ],
      [
        "u",
        "se"
      ],
      [
        "too",
        "k"
      ],
      [
        "scar",
        "ed"
      ],
      [
        "le",
        "arn"
      ],
      [
        "n",
        "y"
      ],
      [
        "u",
        "re"
      ],
      [
        "toy",
        "s"
      ],
      [
        "ge",
        "t"
      ],
      [
        "s",
        "s"
      ],
      [
        "w",
        "ill"
      ],
      [
        "g",
        "ot"
      ],
      [
        "d",
        "d"
      ],
      [
        "ar",
        "ound"
      ],
      [
        "thing",
        "s"
      ],
      [
        "is",
        "h"
      ],
      [
        "you",
        "r"
      ],
      [
        "ou",
        "d"
      ],
      [
        "li",
        "ved"
      ],
      [
        "e",
        "l"
      ],
      [
        "i",
        "ck"
      ],
      [
        "lo",
        "w"
      ],
      [
        "l",
        "ot"
      ],
      [
        "a",
        "ve"
      ],
      [
        "pe",
        "c"
      ],
      [
        "the",
        "n"
      ],
      [
        "s",
        "un"
      ],
      [
        "e",
        "p"
      ],
      [
        "S",
        "o"
      ],
      [
        "d",
        "er"
      ],
      [
        ",",
        "\""
      ],
      [
        "w",
        "hen"
      ],
      [
        "o",
        "b"
      ],
      [
        "pp",
        "ed"
      ],
      [
        "i",
        "e"
      ],
      [
        "n",
        "a"
      ],
      [
        "b",
        "ot"
      ],
      [
        "r",
        "u"
      ],
      [
        "L",
        "uc"
      ],
      [
        "Luc",
        "y"
      ],
      [
        "i",
        "f"
      ],
      [
        "t",
        "e"
      ],
      [
        "an",
        "t"
      ],
      [
        "ro",
        "om"
      ],
      [
        "t",
        "ried"
      ],
      [
        "k",
        "now"
      ],
      [
        "say",
        "s"
      ],
      [
        "um",
        "p"
      ],
      [
        "it",
        "ed"
      ],
      [
        "w",
        "ho"
      ],
      [
        "an",
        "y"
      ],
      [
        "man",
        "y"
      ],
      [
        "p",
        "ic"
      ],
      [
        "ab",
        "out"
      ],
      [
        "u",
        "s"
      ],
      [
        "c",
        "are"
      ],
      [
        "p",
        "ret"
      ],
      [
        "de",
        "c"
      ],
      [
        "W",
        "e"
      ],
      [
        "b",
        "y"
      ],
      [
        "k",
        "new"
      ],
      [
        "ou",
        "s"
      ],
      [
        "is",
        "e"
      ],
      [
        "all",
        "y"
      ],
      [
        "p",
        "u"
      ],
      [
        "is",
        "t"
      ],
      [
        "way",
        "s"
      ],
      [
        "q",
        "u"
      ],
      [
        "learn",
        "ed"
      ],
      [
        "at",
        "e"
      ],
      [
        "wa",
        "ter"
      ],
      [
        "an",
        "k"
      ],
      [
        "A",
        "nd"
      ],
      [
        "f",
        "ter"
      ],
      [
        "be",
        "came"
      ],
      [
        "be",
        "st"
      ],
      [
        "i",
        "ve"
      ],
      [
        "u",
        "st"
      ],
      [
        "g",
        "re"
      ],
      [
        "l",
        "ong"
      ],
      [
        "ne",
        "x"
      ],
      [
        "b",
        "l"
      ],
      [
        "ex",
        "c"
      ],
      [
        "ca",
        "use"
      ],
      [
        "out",
        "side"
      ],
      [
        "laug",
        "hed"
      ],
      [
        "m",
        "o"
      ],
      [
        "loo",
        "k"
      ],
      [
        "al",
        "ways"
      ],
      [
        "he",
        "re"
      ],
      [
        "dec",
        "id"
      ],
      [
        "sh",
        "ow"
      ],
      [
        "e",
        "at"
      ],
      [
        "it",
        "e"
      ],
      [
        "decid",
        "ed"
      ],
      [
        "be",
        "cause"
      ],
      [
        "f",
        "ore"
      ],
      [
        "c",
        "l"
      ],
      [
        "in",
        "to"
      ],
      [
        "p",
        "o"
      ],
      [
        "c",
        "le"
      ],
      [
        "an",
        "g"
      ],
      [
        "L",
        "et"
      ],
      [
        "j",
        "ump"
      ],
      [
        "bot",
        "h"
      ],
      [
        "The",
        "n"
      ],
      [
        "r",
        "un"
      ],
      [
        "h",
        "ug"
      ],
      [
        "er",
        "s"
      ],
      [
        "d",
        "ad"
      ],
      [
        "m",
        "a"
      ],
      [
        "o",
        "k"
      ],
      [
        "A",
        "n"
      ],
      [
        "fa",
        "st"
      ],
      [
        "s",
        "ur"
      ],
      [
        "c",
        "lo"
      ],
      [
        "W",
        "hen"
      ],
      [
        "t",
        "his"
      ],
      [
        "exc",
        "ited"
      ],
      [
        "n",
        "ice"
      ],
      [
        "fe",
        "el"
      ],
      [
        "Y",
        "es"
      ],
      [
        "s",
        "or"
      ],
      [
        "w",
        "h"
      ],
      [
        "b",
        "b"
      ],
      [
        "p",
        "a"
      ],
      [
        "o",
        "ld"
      ],
      [
        "b",
        "u"
      ],
      [
        "in",
        "k"
      ],
      [
        "to",
        "ld"
      ],
      [
        "s",
        "k"
      ],
      [
        "c",
        "ome"
      ],
      [
        "B",
        "ob"
      ],
      [
        "b",
        "r"
      ],
      [
        "in",
        "side"
      ],
      [
        "f",
        "ish"
      ],
      [
        "sur",
        "pr"
      ],
      [
        "H",
        "is"
      ],
      [
        "in",
        "y"
      ],
      [
        "oo",
        "k"
      ],
      [
        "pret",
        "ty"
      ],
      [
        "f",
        "ly"
      ],
      [
        "ar",
        "a"
      ],
      [
        "g",
        "ave"
      ],
      [
        "t",
        "ake"
      ],
      [
        "t",
        "a"
      ],
      [
        "ou",
        "r"
      ],
      [
        "le",
        "t"
      ],
      [
        "e",
        "ach"
      ],
      [
        "j",
        "o"
      ],
      [
        "mu",
        "ch"
      ],
      [
        "it",
        "s"
      ],
      [
        "h",
        "ow"
      ],
      [
        "An",
        "na"
      ],
      [
        "le",
        "w"
      ],
      [
        "un",
        "der"
      ],
      [
        "im",
        "al"
      ],
      [
        "an",
        "imal"
      ],
      [
        "A",
        "my"
      ],
      [
        "u",
        "dd"
      ],
      [
        "ne",
        "ed"
      ],
      [
        "th",
        "an"
      ],
      [
        "v",
        "en"
      ],
      [
        "ab",
        "le"
      ],
      [
        "a",
        "c"
      ],
      [
        "f",
        "low"
      ],
      [
        "A",
        "s"
      ],
      [
        "ha",
        "r"
      ],
      [
        "sor",
        "ry"
      ],
      [
        "s",
        "w"
      ],
      [
        "e",
        "ll"
      ],
      [
        "u",
        "ck"
      ],
      [
        "C",
        "an"
      ],
      [
        "T",
        "h"
      ],
      [
        "S",
        "ara"
      ],
      [
        "g",
        "ed"
      ],
      [
        "is",
        "ed"
      ],
      [
        "ro",
        "ck"
      ],
      [
        "d",
        "re"
      ],
      [
        "Th",
        "ank"
      ],
      [
        "wal",
        "ked"
      ],
      [
        "ur",
        "t"
      ],
      [
        "be",
        "ar"
      ],
      [
        "re",
        "ad"
      ],
      [
        "h",
        "and"
      ],
      [
        "le",
        "a"
      ],
      [
        "ur",
        "n"
      ],
      [
        "k",
        "ind"
      ],
      [
        "ra",
        "in"
      ],
      [
        "t",
        "ry"
      ],
      [
        "j",
        "ust"
      ],
      [
        "happ",
        "ened"
      ],
      [
        "st",
        "r"
      ],
      [
        "H",
        "er"
      ],
      [
        "l",
        "ist"
      ],
      [
        "f",
        "ood"
      ],
      [
        "be",
        "t"
      ],
      [
        "did",
        "n"
      ],
      [
        "ig",
        "h"
      ],
      [
        "f",
        "i"
      ],
      [
        "animal",
        "s"
      ],
      [
        "wa",
        "r"
      ],
      [
        "s",
        "pec"
      ],
      [
        "I",
        "n"
      ],
      [
        "wa",
        "t"
      ],
      [
        "ne",
        "ar"
      ],
      [
        "sk",
        "y"
      ],
      [
        "in",
        "e"
      ],
      [
        "c",
        "re"
      ],
      [
        "v",
        "ing"
      ],
      [
        "b",
        "ug"
      ],
      [
        "F",
        "rom"
      ],
      [
        "ide",
        "a"
      ],
      [
        "bet",
        "ter"
      ],
      [
        "he",
        "ard"
      ],
      [
        "ne",
        "ver"
      ],
      [
        "ke",
        "t"
      ],
      [
        "c",
        "he"
      ],
      [
        "t",
        "w"
      ],
      [
        "b",
        "ro"
      ],
      [
        "b",
        "ed"
      ],
      [
        "pl",
        "a"
      ],
      [
        "f",
        "f"
      ],
      [
        "t",
        "al"
      ],
      [
        "lo",
        "ve"
      ],
      [
        "n",
        "t"
      ],
      [
        "s",
        "p"
      ],
      [
        "b",
        "er"
      ],
      [
        "care",
        "ful"
      ],
      [
        "sha",
        "re"
      ],
      [
        "to",
        "w"
      ],
      [
        "co",
        "l"
      ],
      [
        "i",
        "al"
      ],
      [
        "f",
        "lew"
      ],
      [
        "any",
        "more"
      ],
      [
        "c",
        "om"
      ],
      [
        "spec",
        "ial"
      ],
      [
        "i",
        "on"
      ],
      [
        "lot",
        "s"
      ],
      [
        "l",
        "f"
      ],
      [
        "p",
        "er"
      ],
      [
        "w",
        "here"
      ],
      [
        "d",
        "on"
      ],
      [
        "w",
        "ind"
      ],
      [
        "g",
        "ive"
      ],
      [
        "bo",
        "ok"
      ],
      [
        "E",
        "very"
      ],
      [
        "sa",
        "fe"
      ],
      [
        "l",
        "ad"
      ],
      [
        "cle",
        "an"
      ],
      [
        "T",
        "hat"
      ],
      [
        "gr",
        "ound"
      ],
      [
        "e",
        "ven"
      ],
      [
        "op",
        "le"
      ],
      [
        "m",
        "ag"
      ],
      [
        "o",
        "ver"
      ],
      [
        "c",
        "ake"
      ],
      [
        "as",
        "s"
      ],
      [
        "sh",
        "iny"
      ],
      [
        "udd",
        "en"
      ],
      [
        "t",
        "urn"
      ],
      [
        "f",
        "am"
      ],
      [
        "b",
        "ad"
      ],
      [
        "a",
        "fter"
      ],
      [
        "D",
        "o"
      ],
      [
        "udden",
        "ly"
      ],
      [
        "pe",
        "ople"
      ],
      [
        "pr",
        "oud"
      ],
      [
        "ra",
        "bb"
      ],
      [
        "e",
        "ver"
      ],
      [
        "do",
        "or"
      ],
      [
        "surpr",
        "ised"
      ],
      [
        "h",
        "igh"
      ],
      [
        "h",
        "urt"
      ],
      [
        "pec",
        "ted"
      ],
      [
        "g",
        "ard"
      ],
      [
        "gard",
        "en"
      ],
      [
        "op",
        "ened"
      ],
      [
        "pic",
        "ked"
      ],
      [
        "l",
        "oud"
      ],
      [
        "cl",
        "im"
      ],
      [
        "f",
        "ar"
      ],
      [
        "nex",
        "pected"
      ],
      [
        "u",
        "nexpected"
      ],
      [
        "f",
        "o"
      ],
      [
        "be",
        "a"
      ],
      [
        "har",
        "d"
      ],
      [
        "a",
        "pp"
      ],
      [
        "W",
        "hat"
      ],
      [
        "pla",
        "ce"
      ],
      [
        "un",
        "t"
      ],
      [
        "col",
        "or"
      ],
      [
        "than",
        "ked"
      ],
      [
        "bl",
        "ue"
      ],
      [
        "st",
        "ill"
      ],
      [
        "e",
        "ar"
      ],
      [
        "hug",
        "ged"
      ],
      [
        "c",
        "t"
      ],
      [
        "c",
        "all"
      ],
      [
        "N",
        "o"
      ],
      [
        "of",
        "f"
      ],
      [
        "m",
        "or"
      ],
      [
        "oug",
        "h"
      ],
      [
        "mag",
        "ic"
      ],
      [
        "um",
        "my"
      ],
      [
        "W",
        "h"
      ],
      [
        "jump",
        "ed"
      ],
      [
        "J",
        "o"
      ],
      [
        "sh",
        "ould"
      ],
      [
        "fam",
        "ily"
      ],
      [
        "k",
        "id"
      ],
      [
        "wal",
        "k"
      ],
      [
        "oo",
        "l"
      ],
      [
        "sm",
        "ile"
      ],
      [
        "s",
        "qu"
      ],
      [
        "ro",
        "g"
      ],
      [
        "c",
        "ha"
      ],
      [
        "im",
        "p"
      ],
      [
        "u",
        "ff"
      ],
      [
        "re",
        "l"
      ],
      [
        "gre",
        "at"
      ],
      [
        "S",
        "uddenly"
      ],
      [
        "b",
        "ra"
      ],
      [
        "st",
        "ay"
      ],
      [
        "str",
        "ong"
      ],
      [
        "ar",
        "k"
      ],
      [
        "fore",
        "st"
      ],
      [
        "t",
        "ru"
      ],
      [
        "d",
        "an"
      ],
      [
        "itt",
        "y"
      ],
      [
        "t",
        "ure"
      ],
      [
        "s",
        "l"
      ],
      [
        "b",
        "le"
      ],
      [
        "f",
        "rog"
      ],
      [
        "unt",
        "il"
      ],
      [
        "S",
        "ally"
      ],
      [
        "bea",
        "ut"
      ],
      [
        "st",
        "ick"
      ],
      [
        "d",
        "y"
      ],
      [
        "bo",
        "at"
      ],
      [
        "or",
        "t"
      ],
      [
        "n",
        "ing"
      ],
      [
        "es",
        "s"
      ],
      [
        "nex",
        "t"
      ],
      [
        "lea",
        "se"
      ],
      [
        "T",
        "his"
      ],
      [
        "K",
        "itty"
      ],
      [
        "A",
        "fter"
      ],
      [
        "p",
        "t"
      ],
      [
        "happ",
        "ily"
      ],
      [
        "list",
        "en"
      ],
      [
        "c",
        "hed"
      ],
      [
        "kid",
        "s"
      ],
      [
        "beaut",
        "i"
      ],
      [
        "beauti",
        "ful"
      ],
      [
        "s",
        "ed"
      ],
      [
        "help",
        "ed"
      ],
      [
        "y",
        "es"
      ],
      [
        "show",
        "ed"
      ],
      [
        "wh",
        "ile"
      ],
      [
        "un",
        "ny"
      ],
      [
        "sto",
        "ry"
      ],
      [
        "tow",
        "n"
      ],
      [
        "c",
        "u"
      ],
      [
        "ke",
        "ep"
      ],
      [
        "A",
        "t"
      ],
      [
        "pic",
        "ture"
      ],
      [
        "of",
        "t"
      ],
      [
        "re",
        "e"
      ],
      [
        "st",
        "e"
      ],
      [
        "ll",
        "y"
      ],
      [
        "be",
        "ing"
      ],
      [
        "a",
        "k"
      ],
      [
        "me",
        "t"
      ],
      [
        "every",
        "one"
      ],
      [
        "i",
        "p"
      ],
      [
        "ra",
        "w"
      ],
      [
        "call",
        "ed"
      ],
      [
        "le",
        "s"
      ],
      [
        "sto",
        "pped"
      ],
      [
        "g",
        "ame"
      ],
      [
        "N",
        "ow"
      ],
      [
        "F",
        "in"
      ],
      [
        "s",
        "ing"
      ],
      [
        "ang",
        "ry"
      ],
      [
        "jo",
        "y"
      ],
      [
        "uff",
        "y"
      ],
      [
        "op",
        "en"
      ],
      [
        "an",
        "e"
      ],
      [
        "tru",
        "ck"
      ],
      [
        "l",
        "uffy"
      ],
      [
        "s",
        "oft"
      ],
      [
        "y",
        "ummy"
      ],
      [
        "c",
        "ry"
      ],
      [
        "lo",
        "st"
      ],
      [
        "J",
        "ack"
      ],
      [
        "v",
        "ent"
      ],
      [
        "war",
        "m"
      ],
      [
        "il",
        "d"
      ],
      [
        "as",
        "k"
      ],
      [
        "bra",
        "ve"
      ],
      [
        "wor",
        "k"
      ],
      [
        "m",
        "ouse"
      ],
      [
        "on",
        "d"
      ],
      [
        "w",
        "on"
      ],
      [
        "is",
        "hed"
      ],
      [
        "wat",
        "ch"
      ],
      [
        "could",
        "n"
      ],
      [
        "do",
        "ll"
      ],
      [
        "fa",
        "ce"
      ],
      [
        "le",
        "ave"
      ],
      [
        "flow",
        "er"
      ],
      [
        "al",
        "so"
      ],
      [
        "fe",
        "ll"
      ],
      [
        "flow",
        "ers"
      ],
      [
        "gre",
        "en"
      ],
      [
        "m",
        "on"
      ],
      [
        "ll",
        "o"
      ],
      [
        "tw",
        "o"
      ],
      [
        "laug",
        "h"
      ],
      [
        "le",
        "ss"
      ],
      [
        "lo",
        "ck"
      ],
      [
        "g",
        "an"
      ],
      [
        "L",
        "ook"
      ],
      [
        "no",
        "ise"
      ],
      [
        "ir",
        "st"
      ],
      [
        "ow",
        "l"
      ],
      [
        "r",
        "ight"
      ],
      [
        "sto",
        "re"
      ],
      [
        "cre",
        "am"
      ],
      [
        "so",
        "on"
      ],
      [
        "se",
        "lf"
      ],
      [
        "to",
        "p"
      ],
      [
        "sl",
        "ide"
      ],
      [
        "s",
        "er"
      ],
      [
        "ho",
        "le"
      ],
      [
        "H",
        "i"
      ],
      [
        "F",
        "luffy"
      ],
      [
        "i",
        "z"
      ],
      [
        "sa",
        "t"
      ],
      [
        "be",
        "fore"
      ],
      [
        "ir",
        "rel"
      ],
      [
        "ke",
        "y"
      ],
      [
        "un",
        "g"
      ],
      [
        "ir",
        "ed"
      ],
      [
        "ill",
        "y"
      ],
      [
        "he",
        "ar"
      ],
      [
        "ra",
        "ce"
      ],
      [
        "t",
        "able"
      ],
      [
        "ke",
        "pt"
      ],
      [
        "y",
        "ard"
      ],
      [
        "no",
        "dd"
      ],
      [
        "squ",
        "irrel"
      ],
      [
        "to",
        "r"
      ],
      [
        "nodd",
        "ed"
      ],
      [
        "us",
        "ed"
      ],
      [
        "sw",
        "ing"
      ],
      [
        "ex",
        "pl"
      ],
      [
        "bird",
        "s"
      ],
      [
        "v",
        "o"
      ],
      [
        "rabb",
        "it"
      ],
      [
        "ha",
        "ving"
      ],
      [
        "p",
        "ain"
      ],
      [
        "hand",
        "s"
      ],
      [
        "m",
        "ber"
      ],
      [
        "se",
        "t"
      ],
      [
        "go",
        "ing"
      ],
      [
        "t",
        "r"
      ],
      [
        "loo",
        "king"
      ],
      [
        "D",
        "on"
      ],
      [
        "fun",
        "ny"
      ],
      [
        "re",
        "st"
      ],
      [
        "he",
        "ad"
      ],
      [
        "ay",
        "be"
      ],
      [
        "u",
        "ch"
      ],
      [
        "cat",
        "ch"
      ],
      [
        "ug",
        "ht"
      ],
      [
        "f",
        "in"
      ],
      [
        "she",
        "d"
      ],
      [
        "y",
        "ell"
      ],
      [
        "th",
        "ink"
      ],
      [
        "le",
        "ep"
      ],
      [
        "fi",
        "x"
      ],
      [
        "ll",
        "ed"
      ],
      [
        "s",
        "n"
      ],
      [
        "t",
        "ing"
      ],
      [
        "t",
        "ired"
      ],
      [
        "b",
        "unny"
      ],
      [
        "am",
        "a"
      ],
      [
        "w",
        "r"
      ],
      [
        "ri",
        "es"
      ],
      [
        "n",
        "ight"
      ],
      [
        "th",
        "r"
      ],
      [
        "k",
        "it"
      ],
      [
        "te",
        "ll"
      ],
      [
        "s",
        "ound"
      ],
      [
        "me",
        "mber"
      ],
      [
        "ha",
        "s"
      ],
      [
        "me",
        "an"
      ],
      [
        "c",
        "ook"
      ],
      [
        "co",
        "ld"
      ],
      [
        "Wh",
        "y"
      ],
      [
        "p",
        "ond"
      ],
      [
        "sun",
        "ny"
      ],
      [
        "other",
        "s"
      ],
      [
        "tal",
        "k"
      ],
      [
        "f",
        "lo"
      ],
      [
        "c",
        "hen"
      ],
      [
        "d",
        "s"
      ],
      [
        "kit",
        "chen"
      ],
      [
        "wa",
        "it"
      ],
      [
        "c",
        "ut"
      ],
      [
        "p",
        "ie"
      ],
      [
        "D",
        "ad"
      ],
      [
        "c",
        "ou"
      ],
      [
        "d",
        "if"
      ],
      [
        "f",
        "irst"
      ],
      [
        "He",
        "llo"
      ],
      [
        "mom",
        "my"
      ],
      [
        "e",
        "yes"
      ],
      [
        "imp",
        "ort"
      ],
      [
        "a",
        "ge"
      ],
      [
        "fa",
        "v"
      ],
      [
        "i",
        "es"
      ],
      [
        "s",
        "we"
      ],
      [
        "c",
        "on"
      ],
      [
        "at",
        "h"
      ],
      [
        "re",
        "member"
      ],
      [
        "clim",
        "b"
      ],
      [
        "par",
        "ty"
      ],
      [
        "f",
        "t"
      ],
      [
        "i",
        "ous"
      ],
      [
        "s",
        "and"
      ],
      [
        "b",
        "ar"
      ],
      [
        "or",
        "n"
      ],
      [
        "mo",
        "ve"
      ],
      [
        "ll",
        "ow"
      ],
      [
        "cu",
        "ri"
      ],
      [
        "import",
        "ant"
      ],
      [
        "l",
        "ight"
      ],
      [
        "d",
        "uck"
      ],
      [
        "mor",
        "al"
      ],
      [
        "sha",
        "red"
      ],
      [
        "z",
        "y"
      ],
      [
        "st",
        "er"
      ],
      [
        "ok",
        "ay"
      ],
      [
        "dre",
        "ss"
      ],
      [
        "ad",
        "vent"
      ],
      [
        "as",
        "h"
      ],
      [
        "wor",
        "ked"
      ],
      [
        "ma",
        "king"
      ],
      [
        "en",
        "joy"
      ],
      [
        "br",
        "ight"
      ],
      [
        "time",
        "s"
      ],
      [
        "curi",
        "ous"
      ],
      [
        "f",
        "ru"
      ],
      [
        "ag",
        "re"
      ],
      [
        "Mom",
        "my"
      ],
      [
        "Jo",
        "h"
      ],
      [
        "t",
        "all"
      ],
      [
        "d",
        "ir"
      ],
      [
        "h",
        "one"
      ],
      [
        "h",
        "id"
      ],
      [
        "Joh",
        "n"
      ],
      [
        "fav",
        "or"
      ],
      [
        "d",
        "is"
      ],
      [
        "W",
        "ow"
      ],
      [
        "s",
        "leep"
      ],
      [
        "favor",
        "ite"
      ],
      [
        "be",
        "gan"
      ],
      [
        "sha",
        "r"
      ],
      [
        "B",
        "o"
      ],
      [
        "b",
        "ag"
      ],
      [
        "fi",
        "re"
      ],
      [
        "h",
        "ill"
      ],
      [
        "agre",
        "ed"
      ],
      [
        "d",
        "raw"
      ],
      [
        "sh",
        "o"
      ],
      [
        "k",
        "en"
      ],
      [
        "b",
        "re"
      ],
      [
        "c",
        "la"
      ],
      [
        "q",
        "ue"
      ],
      [
        "h",
        "ind"
      ],
      [
        "wat",
        "ched"
      ],
      [
        "fo",
        "llow"
      ],
      [
        "m",
        "ess"
      ],
      [
        "z",
        "ed"
      ],
      [
        "M",
        "r"
      ],
      [
        "p",
        "ick"
      ],
      [
        "p",
        "lease"
      ],
      [
        "b",
        "lock"
      ],
      [
        "sto",
        "p"
      ],
      [
        "h",
        "ung"
      ],
      [
        "be",
        "hind"
      ],
      [
        "g",
        "u"
      ],
      [
        "surpr",
        "ise"
      ],
      [
        "pa",
        "per"
      ],
      [
        "h",
        "ot"
      ],
      [
        "M",
        "aybe"
      ],
      [
        "wor",
        "ry"
      ],
      [
        "d",
        "ark"
      ],
      [
        "d",
        "ro"
      ],
      [
        "Bo",
        "bo"
      ],
      [
        "tre",
        "es"
      ],
      [
        "vo",
        "ice"
      ],
      [
        "gr",
        "ass"
      ],
      [
        "wal",
        "king"
      ],
      [
        "a",
        "ir"
      ],
      [
        "ta",
        "il"
      ],
      [
        "fe",
        "re"
      ],
      [
        "li",
        "on"
      ],
      [
        "flo",
        "or"
      ],
      [
        "far",
        "m"
      ],
      [
        "dif",
        "fere"
      ],
      [
        "s",
        "ong"
      ],
      [
        "st",
        "and"
      ],
      [
        "feel",
        "ing"
      ],
      [
        "but",
        "ter"
      ],
      [
        "l",
        "ed"
      ],
      [
        "we",
        "l"
      ],
      [
        "read",
        "y"
      ],
      [
        "i",
        "ed"
      ],
      [
        "color",
        "s"
      ],
      [
        "lad",
        "y"
      ],
      [
        "J",
        "ane"
      ],
      [
        "an",
        "ge"
      ],
      [
        "Tim",
        "my"
      ],
      [
        "is",
        "y"
      ],
      [
        "leave",
        "s"
      ],
      [
        "clo",
        "ser"
      ],
      [
        "ig",
        "n"
      ],
      [
        "car",
        "s"
      ],
      [
        "turn",
        "ed"
      ],
      [
        "need",
        "ed"
      ],
      [
        "w",
        "ood"
      ],
      [
        "c",
        "ried"
      ],
      [
        "t",
        "ri"
      ],
      [
        "differe",
        "nt"
      ],
      [
        "pie",
        "ce"
      ],
      [
        "advent",
        "ure"
      ],
      [
        "do",
        "es"
      ],
      [
        "pr",
        "in"
      ],
      [
        "ha",
        "ir"
      ],
      [
        "hung",
        "ry"
      ],
      [
        "c",
        "ked"
      ],
      [
        "t",
        "ra"
      ],
      [
        "by",
        "e"
      ],
      [
        "yell",
        "ow"
      ],
      [
        "swe",
        "et"
      ],
      [
        "c",
        "ed"
      ],
      [
        "fu",
        "ll"
      ],
      [
        "to",
        "uch"
      ],
      [
        "we",
        "t"
      ],
      [
        "m",
        "ar"
      ],
      [
        "friend",
        "ly"
      ],
      [
        "m",
        "is"
      ],
      [
        "i",
        "ke"
      ],
      [
        "c",
        "r"
      ],
      [
        "g",
        "er"
      ],
      [
        "d",
        "in"
      ],
      [
        "bro",
        "ken"
      ],
      [
        "m",
        "ou"
      ],
      [
        "c",
        "ra"
      ],
      [
        "A",
        "ll"
      ],
      [
        "l",
        "and"
      ],
      [
        "i",
        "ent"
      ],
      [
        "s",
        "it"
      ],
      [
        "m",
        "ed"
      ],
      [
        "p",
        "rom"
      ],
      [
        "an",
        "other"
      ],
      [
        "pret",
        "end"
      ],
      [
        "dan",
        "ce"
      ],
      [
        "re",
        "ac"
      ],
      [
        "clim",
        "bed"
      ],
      [
        "list",
        "ened"
      ],
      [
        "pl",
        "an"
      ],
      [
        "t",
        "le"
      ],
      [
        "p",
        "en"
      ],
      [
        "at",
        "er"
      ],
      [
        "f",
        "l"
      ],
      [
        "run",
        "ning"
      ],
      [
        "T",
        "o"
      ],
      [
        "on",
        "ly"
      ],
      [
        "ri",
        "ver"
      ],
      [
        "g",
        "one"
      ],
      [
        "sw",
        "im"
      ],
      [
        "il",
        "a"
      ],
      [
        "t",
        "rain"
      ],
      [
        "and",
        "ma"
      ],
      [
        "sm",
        "ell"
      ],
      [
        "th",
        "ank"
      ],
      [
        "The",
        "re"
      ],
      [
        "clo",
        "se"
      ],
      [
        "p",
        "le"
      ],
      [
        "g",
        "g"
      ],
      [
        "L",
        "ila"
      ],
      [
        "pe",
        "t"
      ],
      [
        "ho",
        "ld"
      ],
      [
        "ab",
        "y"
      ],
      [
        "cha",
        "ir"
      ],
      [
        "block",
        "s"
      ],
      [
        "won",
        "der"
      ],
      [
        "Every",
        "one"
      ],
      [
        "a",
        "v"
      ],
      [
        "f",
        "ight"
      ],
      [
        "reac",
        "hed"
      ],
      [
        "li",
        "e"
      ],
      [
        "wa",
        "ll"
      ],
      [
        "b",
        "or"
      ],
      [
        "ra",
        "g"
      ],
      [
        "n",
        "er"
      ],
      [
        "help",
        "ing"
      ],
      [
        "ar",
        "y"
      ],
      [
        "k",
        "ay"
      ],
      [
        "s",
        "low"
      ],
      [
        "z",
        "e"
      ],
      [
        "c",
        "ool"
      ],
      [
        "g",
        "lad"
      ],
      [
        "ho",
        "p"
      ],
      [
        "good",
        "bye"
      ],
      [
        "be",
        "en"
      ],
      [
        "we",
        "ar"
      ],
      [
        "fa",
        "ir"
      ],
      [
        "pu",
        "shed"
      ],
      [
        "in",
        "s"
      ],
      [
        "er",
        "ed"
      ],
      [
        "o",
        "on"
      ],
      [
        "ic",
        "ed"
      ],
      [
        "d",
        "r"
      ],
      [
        "b",
        "it"
      ],
      [
        "J",
        "ust"
      ],
      [
        "se",
        "es"
      ],
      [
        "h",
        "ide"
      ],
      [
        "com",
        "ing"
      ],
      [
        "mu",
        "st"
      ],
      [
        "mom",
        "ent"
      ],
      [
        "wind",
        "ow"
      ],
      [
        "f",
        "r"
      ],
      [
        "ball",
        "oon"
      ],
      [
        "re",
        "pl"
      ],
      [
        "d",
        "one"
      ],
      [
        "s",
        "now"
      ],
      [
        "expl",
        "ore"
      ],
      [
        "b",
        "ow"
      ],
      [
        "So",
        "on"
      ],
      [
        "w",
        "ished"
      ],
      [
        "b",
        "aby"
      ],
      [
        "st",
        "uck"
      ],
      [
        "bu",
        "y"
      ],
      [
        "re",
        "al"
      ],
      [
        "f",
        "all"
      ],
      [
        "m",
        "ight"
      ],
      [
        "nam",
        "e"
      ],
      [
        "app",
        "le"
      ],
      [
        "try",
        "ing"
      ],
      [
        "qu",
        "ick"
      ],
      [
        "scar",
        "y"
      ],
      [
        "look",
        "s"
      ],
      [
        "dre",
        "am"
      ],
      [
        "do",
        "ing"
      ],
      [
        "a",
        "isy"
      ],
      [
        "ing",
        "s"
      ],
      [
        "dir",
        "ty"
      ],
      [
        "bu",
        "ild"
      ],
      [
        "ou",
        "ted"
      ],
      [
        "pp",
        "y"
      ],
      [
        "c",
        "ket"
      ],
      [
        "he",
        "ld"
      ],
      [
        "B",
        "e"
      ],
      [
        "am",
        "es"
      ],
      [
        "s",
        "po"
      ],
      [
        "ar",
        "m"
      ],
      [
        "j",
        "e"
      ],
      [
        "w",
        "ise"
      ],
      [
        "ca",
        "st"
      ],
      [
        "butter",
        "fly"
      ],
      [
        "s",
        "wa"
      ],
      [
        "le",
        "ft"
      ],
      [
        "de",
        "li"
      ],
      [
        "sh",
        "outed"
      ],
      [
        "repl",
        "ied"
      ],
      [
        "s",
        "ure"
      ],
      [
        "w",
        "o"
      ],
      [
        "w",
        "in"
      ],
      [
        "e",
        "m"
      ],
      [
        "re",
        "ach"
      ],
      [
        "wh",
        "y"
      ],
      [
        "b",
        "ran"
      ],
      [
        "thr",
        "ough"
      ],
      [
        "t",
        "iny"
      ],
      [
        "wa",
        "g"
      ],
      [
        "m",
        "i"
      ],
      [
        "m",
        "at"
      ],
      [
        "th",
        "ree"
      ],
      [
        "tre",
        "at"
      ],
      [
        "gr",
        "ow"
      ],
      [
        "pu",
        "lled"
      ],
      [
        "bro",
        "ther"
      ],
      [
        "wood",
        "s"
      ],
      [
        "ar",
        "t"
      ],
      [
        "f",
        "ill"
      ],
      [
        "to",
        "n"
      ],
      [
        "b",
        "us"
      ],
      [
        "se",
        "en"
      ],
      [
        "c",
        "up"
      ],
      [
        "p",
        "ink"
      ],
      [
        "pl",
        "ant"
      ],
      [
        "cla",
        "pped"
      ],
      [
        "ie",
        "ld"
      ],
      [
        "some",
        "times"
      ],
      [
        "and",
        "y"
      ],
      [
        "y",
        "ear"
      ],
      [
        "cl",
        "oud"
      ],
      [
        "swa",
        "m"
      ],
      [
        "g",
        "rabb"
      ],
      [
        "O",
        "kay"
      ],
      [
        "In",
        "side"
      ],
      [
        "j",
        "ob"
      ],
      [
        "color",
        "ful"
      ],
      [
        "ne",
        "st"
      ],
      [
        "remember",
        "ed"
      ],
      [
        "big",
        "ger"
      ],
      [
        "mou",
        "th"
      ],
      [
        "jo",
        "in"
      ],
      [
        "less",
        "on"
      ],
      [
        "O",
        "h"
      ],
      [
        "wa",
        "ved"
      ],
      [
        "grabb",
        "ed"
      ],
      [
        "stay",
        "ed"
      ],
      [
        "D",
        "aisy"
      ],
      [
        "udd",
        "y"
      ],
      [
        "r",
        "ot"
      ],
      [
        "B",
        "uddy"
      ],
      [
        "clo",
        "the"
      ],
      [
        "na",
        "p"
      ],
      [
        "ou",
        "p"
      ],
      [
        "wa",
        "ited"
      ],
      [
        "clothe",
        "s"
      ],
      [
        "he",
        "av"
      ],
      [
        "quick",
        "ly"
      ],
      [
        "p",
        "are"
      ],
      [
        "bro",
        "ke"
      ],
      [
        "g",
        "ames"
      ],
      [
        "g",
        "ent"
      ],
      [
        "v",
        "is"
      ],
      [
        "b",
        "lew"
      ],
      [
        "Fin",
        "ally"
      ],
      [
        "g",
        "l"
      ],
      [
        "uck",
        "y"
      ],
      [
        "er",
        "ous"
      ],
      [
        "Wh",
        "ile"
      ],
      [
        "r",
        "ow"
      ],
      [
        "z",
        "z"
      ],
      [
        "not",
        "iced"
      ],
      [
        "enjoy",
        "ed"
      ],
      [
        "ta",
        "st"
      ],
      [
        "p",
        "ur"
      ],
      [
        "th",
        "re"
      ],
      [
        "like",
        "s"
      ],
      [
        "pain",
        "t"
      ],
      [
        "se",
        "a"
      ],
      [
        "picture",
        "s"
      ],
      [
        "book",
        "s"
      ],
      [
        "d",
        "ry"
      ],
      [
        "heav",
        "y"
      ],
      [
        "g",
        "if"
      ],
      [
        "al",
        "one"
      ],
      [
        "mu",
        "s"
      ],
      [
        "as",
        "ure"
      ],
      [
        "any",
        "thing"
      ],
      [
        "s",
        "pot"
      ],
      [
        "li",
        "ve"
      ],
      [
        "ho",
        "pped"
      ],
      [
        "turn",
        "s"
      ],
      [
        "Tom",
        "my"
      ],
      [
        "wor",
        "ld"
      ],
      [
        "cast",
        "le"
      ],
      [
        "con",
        "t"
      ],
      [
        "p",
        "at"
      ],
      [
        "Sara",
        "h"
      ],
      [
        "mi",
        "x"
      ],
      [
        "b",
        "ike"
      ],
      [
        "t",
        "ight"
      ],
      [
        "for",
        "got"
      ],
      [
        "every",
        "where"
      ],
      [
        "Jo",
        "e"
      ],
      [
        "tow",
        "er"
      ],
      [
        "r",
        "ound"
      ],
      [
        "thre",
        "w"
      ],
      [
        "w",
        "his"
      ],
      [
        "him",
        "self"
      ],
      [
        "P",
        "lease"
      ],
      [
        "follow",
        "ed"
      ],
      [
        "j",
        "u"
      ],
      [
        "r",
        "ide"
      ],
      [
        "bo",
        "ard"
      ],
      [
        "a",
        "ther"
      ],
      [
        "fru",
        "it"
      ],
      [
        "\"",
        "."
      ],
      [
        "wh",
        "ite"
      ],
      [
        "se",
        "c"
      ],
      [
        "wr",
        "ong"
      ],
      [
        "make",
        "s"
      ],
      [
        "st",
        "ran"
      ],
      [
        "E",
        "m"
      ],
      [
        "bre",
        "ak"
      ],
      [
        "p",
        "re"
      ],
      [
        "bl",
        "ack"
      ],
      [
        "pare",
        "nt"
      ],
      [
        "th",
        "y"
      ],
      [
        "be",
        "e"
      ],
      [
        "mus",
        "ic"
      ],
      [
        "de",
        "ep"
      ],
      [
        "ce",
        "ss"
      ],
      [
        "R",
        "e"
      ],
      [
        "sto",
        "ne"
      ],
      [
        "o",
        "lly"
      ],
      [
        "B",
        "illy"
      ],
      [
        "at",
        "ion"
      ],
      [
        "w",
        "he"
      ],
      [
        "ou",
        "n"
      ],
      [
        "st",
        "re"
      ],
      [
        "p",
        "ill"
      ],
      [
        "w",
        "i"
      ],
      [
        "l",
        "ar"
      ],
      [
        "i",
        "et"
      ],
      [
        "dan",
        "ced"
      ],
      [
        "a",
        "p"
      ],
      [
        "a",
        "li"
      ],
      [
        "lea",
        "f"
      ],
      [
        "want",
        "s"
      ],
      [
        "qu",
        "iet"
      ],
      [
        "b",
        "a"
      ],
      [
        "mon",
        "ster"
      ],
      [
        "under",
        "stand"
      ],
      [
        "b",
        "owl"
      ],
      [
        "f",
        "ur"
      ],
      [
        "C",
        "ome"
      ],
      [
        "u",
        "b"
      ],
      [
        "tal",
        "ked"
      ],
      [
        "p",
        "es"
      ],
      [
        "itt",
        "en"
      ],
      [
        "fast",
        "er"
      ],
      [
        "fu",
        "lly"
      ],
      [
        "cook",
        "ies"
      ],
      [
        "p",
        "ro"
      ],
      [
        "br",
        "ought"
      ],
      [
        "le",
        "g"
      ],
      [
        "ro",
        "ss"
      ],
      [
        "s",
        "c"
      ],
      [
        "p",
        "h"
      ],
      [
        "c",
        "y"
      ],
      [
        "m",
        "um"
      ],
      [
        "s",
        "ign"
      ],
      [
        "u",
        "ed"
      ],
      [
        "s",
        "is"
      ],
      [
        "we",
        "ll"
      ],
      [
        "an",
        "ce"
      ],
      [
        "t",
        "s"
      ],
      [
        "sm",
        "art"
      ],
      [
        "rock",
        "s"
      ],
      [
        "some",
        "one"
      ],
      [
        "po",
        "in"
      ],
      [
        "shar",
        "ing"
      ],
      [
        "co",
        "ver"
      ],
      [
        "re",
        "ali"
      ],
      [
        "fo",
        "x"
      ],
      [
        "but",
        "ton"
      ],
      [
        "happ",
        "en"
      ],
      [
        "bran",
        "ch"
      ],
      [
        "fin",
        "ished"
      ],
      [
        "re",
        "ally"
      ],
      [
        "o",
        "om"
      ],
      [
        "h",
        "it"
      ],
      [
        "en",
        "ce"
      ],
      [
        "or",
        "ange"
      ],
      [
        "G",
        "r"
      ],
      [
        "it",
        "ch"
      ],
      [
        "sis",
        "ter"
      ],
      [
        "c",
        "orn"
      ],
      [
        "din",
        "ner"
      ],
      [
        "z",
        "ing"
      ],
      [
        "g",
        "i"
      ],
      [
        "fly",
        "ing"
      ],
      [
        "e",
        "le"
      ],
      [
        "mo",
        "st"
      ],
      [
        "cont",
        "in"
      ],
      [
        "fe",
        "ct"
      ],
      [
        "wor",
        "ried"
      ],
      [
        "s",
        "y"
      ],
      [
        "be",
        "ach"
      ],
      [
        "a",
        "f"
      ],
      [
        "pl",
        "ane"
      ],
      [
        "d",
        "ang"
      ],
      [
        "w",
        "ish"
      ],
      [
        "sec",
        "ret"
      ],
      [
        "st",
        "u"
      ],
      [
        "dre",
        "n"
      ],
      [
        "ch",
        "il"
      ],
      [
        "f",
        "ree"
      ],
      [
        "s",
        "pe"
      ],
      [
        "to",
        "day"
      ],
      [
        "per",
        "fect"
      ],
      [
        "m",
        "in"
      ],
      [
        "sh",
        "in"
      ],
      [
        "every",
        "thing"
      ],
      [
        "s",
        "illy"
      ],
      [
        "chil",
        "dren"
      ],
      [
        "fill",
        "ed"
      ],
      [
        "f",
        "ield"
      ],
      [
        "el",
        "se"
      ],
      [
        "ot",
        "h"
      ],
      [
        "ste",
        "ad"
      ],
      [
        "smile",
        "s"
      ],
      [
        "O",
        "K"
      ],
      [
        "vis",
        "it"
      ],
      [
        "p",
        "ow"
      ],
      [
        "s",
        "ang"
      ],
      [
        "sn",
        "ack"
      ],
      [
        "pu",
        "ll"
      ],
      [
        "ask",
        "s"
      ],
      [
        "parent",
        "s"
      ],
      [
        "pu",
        "dd"
      ],
      [
        "eat",
        "ing"
      ],
      [
        "piece",
        "s"
      ],
      [
        "reali",
        "zed"
      ],
      [
        "prom",
        "ised"
      ],
      [
        "c",
        "tor"
      ],
      [
        "p",
        "ig"
      ],
      [
        "s",
        "pr"
      ],
      [
        "p",
        "ers"
      ],
      [
        "contin",
        "ued"
      ],
      [
        "b",
        "ite"
      ],
      [
        "se",
        "s"
      ],
      [
        "care",
        "fully"
      ],
      [
        "itt",
        "ing"
      ],
      [
        "on",
        "s"
      ],
      [
        "h",
        "ig"
      ],
      [
        "g",
        "ra"
      ],
      [
        "j",
        "ar"
      ],
      [
        "p",
        "hone"
      ],
      [
        "pp",
        "er"
      ],
      [
        "c",
        "ow"
      ],
      [
        "at",
        "ed"
      ],
      [
        "wor",
        "ds"
      ],
      [
        "d",
        "rag"
      ],
      [
        "mo",
        "ved"
      ],
      [
        "mu",
        "d"
      ],
      [
        "ro",
        "lled"
      ],
      [
        "wa",
        "ve"
      ],
      [
        "am",
        "p"
      ],
      [
        "app",
        "ear"
      ],
      [
        "cry",
        "ing"
      ],
      [
        "L",
        "e"
      ],
      [
        "en",
        "ough"
      ],
      [
        "bl",
        "an"
      ],
      [
        "blan",
        "ket"
      ],
      [
        "J",
        "im"
      ],
      [
        "b",
        "ath"
      ],
      [
        "one",
        "y"
      ],
      [
        "s",
        "oup"
      ],
      [
        "d",
        "ri"
      ],
      [
        "m",
        "other"
      ],
      [
        "sa",
        "il"
      ],
      [
        "pu",
        "sh"
      ],
      [
        "im",
        "i"
      ],
      [
        "M",
        "imi"
      ],
      [
        "M",
        "y"
      ],
      [
        "J",
        "en"
      ],
      [
        "dr",
        "ink"
      ],
      [
        "S",
        "ome"
      ],
      [
        "b",
        "oun"
      ],
      [
        "sn",
        "ake"
      ],
      [
        "p",
        "ass"
      ],
      [
        "thr",
        "ow"
      ],
      [
        "ro",
        "ll"
      ],
      [
        "fair",
        "y"
      ],
      [
        "cra",
        "b"
      ],
      [
        "laugh",
        "ing"
      ],
      [
        "ama",
        "zing"
      ],
      [
        "ot",
        "e"
      ],
      [
        "get",
        "ting"
      ],
      [
        "pur",
        "ple"
      ],
      [
        "with",
        "out"
      ],
      [
        "bot",
        "tle"
      ],
      [
        "gr",
        "andma"
      ],
      [
        "gif",
        "t"
      ],
      [
        "ma",
        "il"
      ],
      [
        "s",
        "pl"
      ],
      [
        "m",
        "oney"
      ],
      [
        "bar",
        "ked"
      ],
      [
        "wag",
        "ged"
      ],
      [
        "mon",
        "key"
      ],
      [
        "pa",
        "st"
      ],
      [
        "wel",
        "come"
      ],
      [
        "se",
        "l"
      ],
      [
        "ch",
        "ool"
      ],
      [
        "br",
        "own"
      ],
      [
        "do",
        "ctor"
      ],
      [
        "is",
        "es"
      ],
      [
        "clo",
        "sed"
      ],
      [
        "s",
        "chool"
      ],
      [
        "pp",
        "ing"
      ],
      [
        "c",
        "ious"
      ],
      [
        "mor",
        "ning"
      ],
      [
        "own",
        "er"
      ],
      [
        "c",
        "andy"
      ],
      [
        "l",
        "one"
      ],
      [
        "hig",
        "her"
      ],
      [
        "s",
        "itting"
      ],
      [
        ".",
        "”"
      ],
      [
        "s",
        "too"
      ],
      [
        "tre",
        "asure"
      ],
      [
        "he",
        "s"
      ],
      [
        "dang",
        "erous"
      ],
      [
        "!",
        "”"
      ],
      [
        "ne",
        "t"
      ],
      [
        "lone",
        "ly"
      ],
      [
        "sh",
        "op"
      ],
      [
        "li",
        "ving"
      ],
      [
        "ic",
        "y"
      ],
      [
        "app",
        "les"
      ],
      [
        "cou",
        "nt"
      ],
      [
        "stran",
        "ge"
      ],
      [
        "com",
        "for"
      ],
      [
        "B",
        "l"
      ],
      [
        "sm",
        "o"
      ],
      [
        "ro",
        "ad"
      ],
      [
        "shin",
        "ing"
      ],
      [
        "e",
        "gg"
      ],
      [
        "ant",
        "s"
      ],
      [
        "pa",
        "w"
      ],
      [
        "un",
        "a"
      ],
      [
        "cre",
        "at"
      ],
      [
        "ck",
        "s"
      ],
      [
        "sho",
        "es"
      ],
      [
        "i",
        "ble"
      ],
      [
        "tal",
        "king"
      ],
      [
        "al",
        "thy"
      ],
      [
        "ca",
        "ught"
      ],
      [
        "C",
        "h"
      ],
      [
        "stoo",
        "d"
      ],
      [
        "l",
        "ake"
      ],
      [
        "let",
        "ter"
      ],
      [
        "run",
        "s"
      ],
      [
        "co",
        "at"
      ],
      [
        "b",
        "as"
      ],
      [
        "w",
        "ings"
      ],
      [
        "che",
        "e"
      ],
      [
        "ch",
        "o"
      ],
      [
        "f",
        "an"
      ],
      [
        "v",
        "a"
      ],
      [
        "ne",
        "e"
      ],
      [
        "F",
        "red"
      ],
      [
        "year",
        "s"
      ],
      [
        "bas",
        "ket"
      ],
      [
        "drag",
        "on"
      ],
      [
        "day",
        "s"
      ],
      [
        "be",
        "lie"
      ],
      [
        "m",
        "ine"
      ],
      [
        "think",
        "s"
      ],
      [
        "deli",
        "cious"
      ],
      [
        "pudd",
        "le"
      ],
      [
        "no",
        "se"
      ],
      [
        "ig",
        "g"
      ],
      [
        "farm",
        "er"
      ],
      [
        "sa",
        "me"
      ],
      [
        "Em",
        "ma"
      ],
      [
        "ted",
        "dy"
      ],
      [
        "m",
        "ind"
      ],
      [
        "un",
        "ch"
      ],
      [
        "se",
        "ar"
      ],
      [
        "che",
        "s"
      ],
      [
        "W",
        "his"
      ],
      [
        "M",
        "olly"
      ],
      [
        "G",
        "ood"
      ],
      [
        "f",
        "it"
      ],
      [
        "br",
        "ing"
      ],
      [
        "gent",
        "le"
      ],
      [
        "war",
        "ds"
      ],
      [
        "star",
        "t"
      ],
      [
        "To",
        "gether"
      ],
      [
        "fin",
        "ally"
      ],
      [
        "cr",
        "ay"
      ],
      [
        "k",
        "ite"
      ],
      [
        "s",
        "cream"
      ],
      [
        "po",
        "l"
      ],
      [
        "she",
        "ll"
      ],
      [
        "v",
        "ill"
      ],
      [
        "sing",
        "ing"
      ],
      [
        "h",
        "or"
      ],
      [
        "tast",
        "y"
      ],
      [
        "id",
        "ge"
      ],
      [
        "a",
        "ce"
      ],
      [
        "b",
        "en"
      ],
      [
        "tr",
        "ou"
      ],
      [
        "her",
        "self"
      ],
      [
        "hop",
        "ed"
      ],
      [
        "w",
        "ore"
      ],
      [
        "an",
        "sw"
      ],
      [
        "ar",
        "ri"
      ],
      [
        "swing",
        "s"
      ],
      [
        "Bl",
        "ue"
      ],
      [
        "un",
        "i"
      ],
      [
        "k",
        "is"
      ],
      [
        "be",
        "long"
      ],
      [
        "p",
        "ack"
      ],
      [
        "k",
        "ers"
      ],
      [
        "bu",
        "sh"
      ],
      [
        "n",
        "g"
      ],
      [
        "k",
        "n"
      ],
      [
        "wo",
        "ke"
      ],
      [
        "car",
        "rot"
      ],
      [
        "m",
        "ing"
      ],
      [
        "B",
        "ell"
      ],
      [
        "ught",
        "y"
      ],
      [
        "te",
        "ach"
      ],
      [
        "ele",
        "ph"
      ],
      [
        "na",
        "ughty"
      ],
      [
        "dro",
        "pped"
      ],
      [
        "h",
        "u"
      ],
      [
        "Whis",
        "kers"
      ],
      [
        "te",
        "ac"
      ],
      [
        "co",
        "ll"
      ],
      [
        "p",
        "ile"
      ],
      [
        "hid",
        "ing"
      ],
      [
        "c",
        "our"
      ],
      [
        "The",
        "ir"
      ],
      [
        "Re",
        "my"
      ],
      [
        "d",
        "i"
      ],
      [
        "Bell",
        "a"
      ],
      [
        "be",
        "ll"
      ],
      [
        "to",
        "uc"
      ],
      [
        "is",
        "a"
      ],
      [
        "v",
        "al"
      ],
      [
        "k",
        "no"
      ],
      [
        "s",
        "u"
      ],
      [
        "pu",
        "ppy"
      ],
      [
        "ll",
        "ie"
      ],
      [
        "I",
        "f"
      ],
      [
        "l",
        "unch"
      ],
      [
        "tw",
        "ins"
      ],
      [
        "sa",
        "ck"
      ],
      [
        "m",
        "ent"
      ],
      [
        "ro",
        "pe"
      ],
      [
        "m",
        "ach"
      ],
      [
        "M",
        "ark"
      ],
      [
        "L",
        "isa"
      ],
      [
        "cour",
        "se"
      ],
      [
        "Gr",
        "andma"
      ],
      [
        "sha",
        "pes"
      ],
      [
        "che",
        "ered"
      ],
      [
        "gre",
        "w"
      ],
      [
        "l",
        "ay"
      ],
      [
        "vill",
        "age"
      ],
      [
        "fu",
        "sed"
      ],
      [
        "she",
        "lf"
      ],
      [
        "er",
        "ful"
      ],
      [
        "ir",
        "th"
      ],
      [
        "sp",
        "in"
      ],
      [
        "ju",
        "ice"
      ],
      [
        "wor",
        "d"
      ],
      [
        "rain",
        "bow"
      ],
      [
        "par",
        "t"
      ],
      [
        "irth",
        "day"
      ],
      [
        "sh",
        "ook"
      ],
      [
        "ben",
        "ch"
      ],
      [
        "f",
        "ence"
      ],
      [
        "stre",
        "et"
      ],
      [
        "cut",
        "e"
      ],
      [
        "n",
        "ut"
      ],
      [
        "J",
        "ill"
      ],
      [
        "c",
        "al"
      ],
      [
        "chee",
        "se"
      ],
      [
        "touc",
        "hed"
      ],
      [
        "ball",
        "s"
      ],
      [
        "or",
        "m"
      ],
      [
        "s",
        "had"
      ],
      [
        "w",
        "and"
      ],
      [
        "se",
        "ed"
      ],
      [
        "te",
        "a"
      ],
      [
        "e",
        "as"
      ],
      [
        "teac",
        "her"
      ],
      [
        "d",
        "es"
      ],
      [
        "lo",
        "om"
      ],
      [
        "arri",
        "ved"
      ],
      [
        "b",
        "and"
      ],
      [
        "w",
        "ra"
      ],
      [
        "fore",
        "ver"
      ],
      [
        "car",
        "ry"
      ],
      [
        "fe",
        "w"
      ],
      [
        "ll",
        "a"
      ],
      [
        "bug",
        "s"
      ],
      [
        "sound",
        "s"
      ],
      [
        "s",
        "li"
      ],
      [
        "G",
        "o"
      ],
      [
        "ble",
        "m"
      ],
      [
        "pro",
        "blem"
      ],
      [
        "c",
        "ing"
      ],
      [
        "n",
        "um"
      ],
      [
        "prom",
        "ise"
      ],
      [
        "il",
        "k"
      ],
      [
        "i",
        "er"
      ],
      [
        "b",
        "irthday"
      ],
      [
        "wonder",
        "ful"
      ],
      [
        "doll",
        "s"
      ],
      [
        "H",
        "ow"
      ],
      [
        "sto",
        "r"
      ],
      [
        "bus",
        "y"
      ],
      [
        "sh",
        "y"
      ],
      [
        "ir",
        "p"
      ],
      [
        "feel",
        "s"
      ],
      [
        "b",
        "read"
      ],
      [
        "ad",
        "e"
      ],
      [
        "ne",
        "ck"
      ],
      [
        "m",
        "ilk"
      ],
      [
        "i",
        "an"
      ],
      [
        "ro",
        "bot"
      ],
      [
        "ve",
        "l"
      ],
      [
        "nt",
        "ain"
      ],
      [
        "p",
        "op"
      ],
      [
        "hear",
        "t"
      ],
      [
        "belie",
        "ve"
      ],
      [
        "ir",
        "t"
      ],
      [
        "ca",
        "ve"
      ],
      [
        "po",
        "cket"
      ],
      [
        "sha",
        "ke"
      ],
      [
        "see",
        "k"
      ],
      [
        "help",
        "ful"
      ],
      [
        "stor",
        "m"
      ],
      [
        "slow",
        "ly"
      ],
      [
        "P",
        "e"
      ],
      [
        "ump",
        "y"
      ],
      [
        "pat",
        "ient"
      ],
      [
        "ber",
        "ries"
      ],
      [
        "appear",
        "ed"
      ],
      [
        "ug",
        "ly"
      ],
      [
        "d",
        "river"
      ],
      [
        "hold",
        "ing"
      ],
      [
        "to",
        "wards"
      ],
      [
        "eleph",
        "ant"
      ],
      [
        "up",
        "set"
      ],
      [
        "r",
        "ing"
      ],
      [
        "t",
        "urt"
      ],
      [
        "k",
        "itten"
      ],
      [
        "sto",
        "ries"
      ],
      [
        "s",
        "uc"
      ],
      [
        "l",
        "ate"
      ],
      [
        "spl",
        "ash"
      ],
      [
        "S",
        "ure"
      ],
      [
        "hone",
        "y"
      ],
      [
        "z",
        "oom"
      ],
      [
        "c",
        "ir"
      ],
      [
        "no",
        "ises"
      ],
      [
        "shar",
        "p"
      ],
      [
        "L",
        "ater"
      ],
      [
        "s",
        "park"
      ],
      [
        "gr",
        "ay"
      ],
      [
        "dir",
        "t"
      ],
      [
        "Le",
        "o"
      ],
      [
        "d",
        "ist"
      ],
      [
        "se",
        "at"
      ],
      [
        "An",
        "n"
      ],
      [
        "uc",
        "ket"
      ],
      [
        "b",
        "ucket"
      ],
      [
        "sh",
        "r"
      ],
      [
        "me",
        "et"
      ],
      [
        "you",
        "ng"
      ],
      [
        "not",
        "e"
      ],
      [
        "u",
        "ce"
      ],
      [
        "ama",
        "zed"
      ],
      [
        "turt",
        "le"
      ],
      [
        "spo",
        "on"
      ],
      [
        "treat",
        "s"
      ],
      [
        "sp",
        "id"
      ],
      [
        "u",
        "ll"
      ],
      [
        "magic",
        "al"
      ],
      [
        "was",
        "h"
      ],
      [
        "sh",
        "ine"
      ],
      [
        "p",
        "ed"
      ],
      [
        "er",
        "a"
      ],
      [
        "g",
        "low"
      ],
      [
        "M",
        "ama"
      ],
      [
        "f",
        "old"
      ],
      [
        "le",
        "mon"
      ],
      [
        "tri",
        "p"
      ],
      [
        "comfor",
        "table"
      ],
      [
        "g",
        "en"
      ],
      [
        "m",
        "ist"
      ],
      [
        "que",
        "st"
      ],
      [
        "h",
        "ang"
      ],
      [
        "j",
        "our"
      ],
      [
        "hor",
        "se"
      ],
      [
        "lot",
        "h"
      ],
      [
        "ad",
        "d"
      ],
      [
        "c",
        "loth"
      ],
      [
        "pu",
        "zz"
      ],
      [
        "Dad",
        "dy"
      ],
      [
        "or",
        "gan"
      ],
      [
        "prin",
        "cess"
      ],
      [
        "ro",
        "ar"
      ],
      [
        "cook",
        "ie"
      ],
      [
        "pic",
        "y"
      ],
      [
        "dri",
        "ve"
      ],
      [
        "oo",
        "se"
      ],
      [
        "hug",
        "s"
      ],
      [
        "w",
        "ild"
      ],
      [
        "ta",
        "king"
      ],
      [
        "whe",
        "el"
      ],
      [
        "bl",
        "ed"
      ],
      [
        "organ",
        "iz"
      ],
      [
        "mis",
        "s"
      ],
      [
        "s",
        "ug"
      ],
      [
        "il",
        "ing"
      ],
      [
        "ri",
        "ch"
      ],
      [
        "O",
        "f"
      ],
      [
        "str",
        "ing"
      ],
      [
        "in",
        "stead"
      ],
      [
        "t",
        "i"
      ],
      [
        "ru",
        "de"
      ],
      [
        "l",
        "ucky"
      ],
      [
        "dro",
        "ve"
      ],
      [
        "er",
        "o"
      ],
      [
        "B",
        "u"
      ],
      [
        "hu",
        "ge"
      ],
      [
        "m",
        "er"
      ],
      [
        "co",
        "in"
      ],
      [
        "li",
        "ce"
      ],
      [
        "fight",
        "ing"
      ],
      [
        "star",
        "s"
      ],
      [
        "s",
        "picy"
      ],
      [
        "b",
        "one"
      ],
      [
        "M",
        "ary"
      ],
      [
        "c",
        "raw"
      ],
      [
        "He",
        "y"
      ],
      [
        "t",
        "ie"
      ],
      [
        "d",
        "en"
      ],
      [
        "c",
        "or"
      ],
      [
        "e",
        "k"
      ],
      [
        "bu",
        "bb"
      ],
      [
        "la",
        "st"
      ],
      [
        "w",
        "ide"
      ],
      [
        "car",
        "d"
      ],
      [
        "C",
        "at"
      ],
      [
        "li",
        "fe"
      ],
      [
        "R",
        "o"
      ],
      [
        "whis",
        "tle"
      ],
      [
        "p",
        "ath"
      ],
      [
        "ne",
        "y"
      ],
      [
        "can",
        "not"
      ],
      [
        "s",
        "ick"
      ],
      [
        "b",
        "at"
      ],
      [
        "come",
        "s"
      ],
      [
        "ru",
        "sh"
      ],
      [
        "rest",
        "ing"
      ],
      [
        "cir",
        "cle"
      ],
      [
        "spid",
        "er"
      ],
      [
        "fo",
        "ot"
      ],
      [
        "in",
        "v"
      ],
      [
        "song",
        "s"
      ],
      [
        "snow",
        "man"
      ],
      [
        "ch",
        "ange"
      ],
      [
        "L",
        "una"
      ],
      [
        "pill",
        "ow"
      ],
      [
        "fix",
        "ed"
      ],
      [
        "W",
        "ith"
      ],
      [
        "sa",
        "ge"
      ],
      [
        "bo",
        "ss"
      ],
      [
        "gi",
        "ant"
      ],
      [
        "jo",
        "ke"
      ],
      [
        "er",
        "ry"
      ],
      [
        "for",
        "get"
      ],
      [
        "sh",
        "ip"
      ],
      [
        "p",
        "ra"
      ],
      [
        "mo",
        "on"
      ],
      [
        "wor",
        "m"
      ],
      [
        "ta",
        "ste"
      ],
      [
        "gr",
        "umpy"
      ],
      [
        "w",
        "ing"
      ],
      [
        "mach",
        "ine"
      ],
      [
        "cou",
        "n"
      ],
      [
        "th",
        "in"
      ],
      [
        "st",
        "ep"
      ],
      [
        "b",
        "ri"
      ],
      [
        "gra",
        "b"
      ],
      [
        "at",
        "t"
      ],
      [
        "r",
        "ad"
      ],
      [
        "pe",
        "ace"
      ],
      [
        "Ch",
        "irp"
      ],
      [
        "s",
        "our"
      ],
      [
        "in",
        "ed"
      ],
      [
        "dad",
        "dy"
      ],
      [
        "f",
        "ing"
      ],
      [
        "s",
        "uddenly"
      ],
      [
        "land",
        "ed"
      ],
      [
        "hid",
        "den"
      ],
      [
        "was",
        "n"
      ],
      [
        "wr",
        "ite"
      ],
      [
        "con",
        "fused"
      ],
      [
        "cha",
        "sed"
      ],
      [
        "in",
        "te"
      ],
      [
        "er",
        "t"
      ],
      [
        "fru",
        "its"
      ],
      [
        "my",
        "ster"
      ],
      [
        "smo",
        "oth"
      ],
      [
        "ca",
        "ge"
      ],
      [
        "ste",
        "pped"
      ],
      [
        "o",
        "ven"
      ],
      [
        "adventure",
        "s"
      ],
      [
        "mis",
        "sed"
      ],
      [
        "take",
        "s"
      ],
      [
        "sel",
        "fish"
      ],
      [
        "gg",
        "y"
      ],
      [
        "k",
        "in"
      ],
      [
        "t",
        "u"
      ],
      [
        "she",
        "ep"
      ],
      [
        "mess",
        "y"
      ],
      [
        "ac",
        "ross"
      ],
      [
        "de",
        "st"
      ],
      [
        "c",
        "op"
      ],
      [
        "p",
        "an"
      ],
      [
        "th",
        "ough"
      ],
      [
        "her",
        "o"
      ],
      [
        "stick",
        "s"
      ],
      [
        "p",
        "s"
      ],
      [
        "Mom",
        "o"
      ],
      [
        "l",
        "ater"
      ],
      [
        "g",
        "y"
      ],
      [
        "i",
        "o"
      ],
      [
        "b",
        "ought"
      ],
      [
        "ell",
        "y"
      ],
      [
        "dre",
        "w"
      ],
      [
        "gr",
        "ate"
      ],
      [
        "cor",
        "d"
      ],
      [
        "Chirp",
        "y"
      ]
    ]
  }
}